{
  "version": "1.0",
  "truncation": null,
  "padding": null,
  "added_tokens": [
    {
      "id": 0,
      "content": "<s>",
      "single_word": false,
      "lstrip": false,
      "rstrip": false,
      "normalized": false,
      "special": true
    },
    {
      "id": 1,
      "content": "<pad>",
      "single_word": false,
      "lstrip": false,
      "rstrip": false,
      "normalized": false,
      "special": true
    },
    {
      "id": 2,
      "content": "</s>",
      "single_word": false,
      "lstrip": false,
      "rstrip": false,
      "normalized": false,
      "special": true
    },
    {
      "id": 3,
      "content": "<unk>",
      "single_word": false,
      "lstrip": false,
      "rstrip": false,
      "normalized": false,
      "special": true
    },
    {
      "id": 32701,
      "content": "<mask>",
      "single_word": false,
      "lstrip": true,
      "rstrip": false,
      "normalized": false,
      "special": true
    },
    {
      "id": 32702,
      "content": "[unused0]",
      "single_word": false,
      "lstrip": false,
      "rstrip": false,
      "normalized": false,
      "special": true
    },
    {
      "id": 32703,
      "content": "[unused1]",
      "single_word": false,
      "lstrip": false,
      "rstrip": false,
      "normalized": false,
      "special": true
    },
    {
      "id": 32704,
      "content": "[unused2]",
      "single_word": false,
      "lstrip": false,
      "rstrip": false,
      "normalized": false,
      "special": true
    },
    {
      "id": 32705,
      "content": "[unused3]",
      "single_word": false,
      "lstrip": false,
      "rstrip": false,
      "normalized": false,
      "special": true
    },
    {
      "id": 32706,
      "content": "[unused4]",
      "single_word": false,
      "lstrip": false,
      "rstrip": false,
      "normalized": false,
      "special": true
    },
    {
      "id": 32707,
      "content": "[unused5]",
      "single_word": false,
      "lstrip": false,
      "rstrip": false,
      "normalized": false,
      "special": true
    },
    {
      "id": 32708,
      "content": "[unused6]",
      "single_word": false,
      "lstrip": false,
      "rstrip": false,
      "normalized": false,
      "special": true
    },
    {
      "id": 32709,
      "content": "[unused7]",
      "single_word": false,
      "lstrip": false,
      "rstrip": false,
      "normalized": false,
      "special": true
    },
    {
      "id": 32710,
      "content": "[unused8]",
      "single_word": false,
      "lstrip": false,
      "rstrip": false,
      "normalized": false,
      "special": true
    },
    {
      "id": 32711,
      "content": "[unused9]",
      "single_word": false,
      "lstrip": false,
      "rstrip": false,
      "normalized": false,
      "special": true
    },
    {
      "id": 32712,
      "content": "[unused10]",
      "single_word": false,
      "lstrip": false,
      "rstrip": false,
      "normalized": false,
      "special": true
    },
    {
      "id": 32713,
      "content": "[unused11]",
      "single_word": false,
      "lstrip": false,
      "rstrip": false,
      "normalized": false,
      "special": true
    },
    {
      "id": 32714,
      "content": "[unused12]",
      "single_word": false,
      "lstrip": false,
      "rstrip": false,
      "normalized": false,
      "special": true
    },
    {
      "id": 32715,
      "content": "[unused13]",
      "single_word": false,
      "lstrip": false,
      "rstrip": false,
      "normalized": false,
      "special": true
    },
    {
      "id": 32716,
      "content": "[unused14]",
      "single_word": false,
      "lstrip": false,
      "rstrip": false,
      "normalized": false,
      "special": true
    },
    {
      "id": 32717,
      "content": "[unused15]",
      "single_word": false,
      "lstrip": false,
      "rstrip": false,
      "normalized": false,
      "special": true
    },
    {
      "id": 32718,
      "content": "[unused16]",
      "single_word": false,
      "lstrip": false,
      "rstrip": false,
      "normalized": false,
      "special": true
    },
    {
      "id": 32719,
      "content": "[unused17]",
      "single_word": false,
      "lstrip": false,
      "rstrip": false,
      "normalized": false,
      "special": true
    },
    {
      "id": 32720,
      "content": "[unused18]",
      "single_word": false,
      "lstrip": false,
      "rstrip": false,
      "normalized": false,
      "special": true
    },
    {
      "id": 32721,
      "content": "[unused19]",
      "single_word": false,
      "lstrip": false,
      "rstrip": false,
      "normalized": false,
      "special": true
    },
    {
      "id": 32722,
      "content": "[unused20]",
      "single_word": false,
      "lstrip": false,
      "rstrip": false,
      "normalized": false,
      "special": true
    },
    {
      "id": 32723,
      "content": "[unused21]",
      "single_word": false,
      "lstrip": false,
      "rstrip": false,
      "normalized": false,
      "special": true
    },
    {
      "id": 32724,
      "content": "[unused22]",
      "single_word": false,
      "lstrip": false,
      "rstrip": false,
      "normalized": false,
      "special": true
    },
    {
      "id": 32725,
      "content": "[unused23]",
      "single_word": false,
      "lstrip": false,
      "rstrip": false,
      "normalized": false,
      "special": true
    },
    {
      "id": 32726,
      "content": "[unused24]",
      "single_word": false,
      "lstrip": false,
      "rstrip": false,
      "normalized": false,
      "special": true
    },
    {
      "id": 32727,
      "content": "[unused25]",
      "single_word": false,
      "lstrip": false,
      "rstrip": false,
      "normalized": false,
      "special": true
    },
    {
      "id": 32728,
      "content": "[unused26]",
      "single_word": false,
      "lstrip": false,
      "rstrip": false,
      "normalized": false,
      "special": true
    },
    {
      "id": 32729,
      "content": "[unused27]",
      "single_word": false,
      "lstrip": false,
      "rstrip": false,
      "normalized": false,
      "special": true
    },
    {
      "id": 32730,
      "content": "[unused28]",
      "single_word": false,
      "lstrip": false,
      "rstrip": false,
      "normalized": false,
      "special": true
    },
    {
      "id": 32731,
      "content": "[unused29]",
      "single_word": false,
      "lstrip": false,
      "rstrip": false,
      "normalized": false,
      "special": true
    },
    {
      "id": 32732,
      "content": "[unused30]",
      "single_word": false,
      "lstrip": false,
      "rstrip": false,
      "normalized": false,
      "special": true
    },
    {
      "id": 32733,
      "content": "[unused31]",
      "single_word": false,
      "lstrip": false,
      "rstrip": false,
      "normalized": false,
      "special": true
    },
    {
      "id": 32734,
      "content": "[unused32]",
      "single_word": false,
      "lstrip": false,
      "rstrip": false,
      "normalized": false,
      "special": true
    },
    {
      "id": 32735,
      "content": "[unused33]",
      "single_word": false,
      "lstrip": false,
      "rstrip": false,
      "normalized": false,
      "special": true
    },
    {
      "id": 32736,
      "content": "[unused34]",
      "single_word": false,
      "lstrip": false,
      "rstrip": false,
      "normalized": false,
      "special": true
    },
    {
      "id": 32737,
      "content": "[unused35]",
      "single_word": false,
      "lstrip": false,
      "rstrip": false,
      "normalized": false,
      "special": true
    },
    {
      "id": 32738,
      "content": "[unused36]",
      "single_word": false,
      "lstrip": false,
      "rstrip": false,
      "normalized": false,
      "special": true
    },
    {
      "id": 32739,
      "content": "[unused37]",
      "single_word": false,
      "lstrip": false,
      "rstrip": false,
      "normalized": false,
      "special": true
    },
    {
      "id": 32740,
      "content": "[unused38]",
      "single_word": false,
      "lstrip": false,
      "rstrip": false,
      "normalized": false,
      "special": true
    },
    {
      "id": 32741,
      "content": "[unused39]",
      "single_word": false,
      "lstrip": false,
      "rstrip": false,
      "normalized": false,
      "special": true
    },
    {
      "id": 32742,
      "content": "[unused40]",
      "single_word": false,
      "lstrip": false,
      "rstrip": false,
      "normalized": false,
      "special": true
    },
    {
      "id": 32743,
      "content": "[unused41]",
      "single_word": false,
      "lstrip": false,
      "rstrip": false,
      "normalized": false,
      "special": true
    },
    {
      "id": 32744,
      "content": "[unused42]",
      "single_word": false,
      "lstrip": false,
      "rstrip": false,
      "normalized": false,
      "special": true
    },
    {
      "id": 32745,
      "content": "[unused43]",
      "single_word": false,
      "lstrip": false,
      "rstrip": false,
      "normalized": false,
      "special": true
    },
    {
      "id": 32746,
      "content": "[unused44]",
      "single_word": false,
      "lstrip": false,
      "rstrip": false,
      "normalized": false,
      "special": true
    },
    {
      "id": 32747,
      "content": "[unused45]",
      "single_word": false,
      "lstrip": false,
      "rstrip": false,
      "normalized": false,
      "special": true
    },
    {
      "id": 32748,
      "content": "[unused46]",
      "single_word": false,
      "lstrip": false,
      "rstrip": false,
      "normalized": false,
      "special": true
    },
    {
      "id": 32749,
      "content": "[unused47]",
      "single_word": false,
      "lstrip": false,
      "rstrip": false,
      "normalized": false,
      "special": true
    },
    {
      "id": 32750,
      "content": "[unused48]",
      "single_word": false,
      "lstrip": false,
      "rstrip": false,
      "normalized": false,
      "special": true
    },
    {
      "id": 32751,
      "content": "[unused49]",
      "single_word": false,
      "lstrip": false,
      "rstrip": false,
      "normalized": false,
      "special": true
    },
    {
      "id": 32752,
      "content": "[unused50]",
      "single_word": false,
      "lstrip": false,
      "rstrip": false,
      "normalized": false,
      "special": true
    },
    {
      "id": 32753,
      "content": "[unused51]",
      "single_word": false,
      "lstrip": false,
      "rstrip": false,
      "normalized": false,
      "special": true
    },
    {
      "id": 32754,
      "content": "[unused52]",
      "single_word": false,
      "lstrip": false,
      "rstrip": false,
      "normalized": false,
      "special": true
    },
    {
      "id": 32755,
      "content": "[unused53]",
      "single_word": false,
      "lstrip": false,
      "rstrip": false,
      "normalized": false,
      "special": true
    },
    {
      "id": 32756,
      "content": "[unused54]",
      "single_word": false,
      "lstrip": false,
      "rstrip": false,
      "normalized": false,
      "special": true
    },
    {
      "id": 32757,
      "content": "[unused55]",
      "single_word": false,
      "lstrip": false,
      "rstrip": false,
      "normalized": false,
      "special": true
    },
    {
      "id": 32758,
      "content": "[unused56]",
      "single_word": false,
      "lstrip": false,
      "rstrip": false,
      "normalized": false,
      "special": true
    },
    {
      "id": 32759,
      "content": "[unused57]",
      "single_word": false,
      "lstrip": false,
      "rstrip": false,
      "normalized": false,
      "special": true
    },
    {
      "id": 32760,
      "content": "[unused58]",
      "single_word": false,
      "lstrip": false,
      "rstrip": false,
      "normalized": false,
      "special": true
    },
    {
      "id": 32761,
      "content": "[unused59]",
      "single_word": false,
      "lstrip": false,
      "rstrip": false,
      "normalized": false,
      "special": true
    },
    {
      "id": 32762,
      "content": "[unused60]",
      "single_word": false,
      "lstrip": false,
      "rstrip": false,
      "normalized": false,
      "special": true
    },
    {
      "id": 32763,
      "content": "[unused61]",
      "single_word": false,
      "lstrip": false,
      "rstrip": false,
      "normalized": false,
      "special": true
    },
    {
      "id": 32764,
      "content": "[unused62]",
      "single_word": false,
      "lstrip": false,
      "rstrip": false,
      "normalized": false,
      "special": true
    },
    {
      "id": 32765,
      "content": "[unused63]",
      "single_word": false,
      "lstrip": false,
      "rstrip": false,
      "normalized": false,
      "special": true
    },
    {
      "id": 32766,
      "content": "[unused64]",
      "single_word": false,
      "lstrip": false,
      "rstrip": false,
      "normalized": false,
      "special": true
    },
    {
      "id": 32767,
      "content": "[unused65]",
      "single_word": false,
      "lstrip": false,
      "rstrip": false,
      "normalized": false,
      "special": true
    }
  ],
  "normalizer": {
    "type": "Sequence",
    "normalizers": [
      {
        "type": "Nmt"
      },
      {
        "type": "NFKC"
      },
      {
        "type": "Lowercase"
      }
    ]
  },
  "pre_tokenizer": {
    "type": "Metaspace",
    "replacement": "▁",
    "prepend_scheme": "always",
    "split": true
  },
  "post_processor": {
    "type": "TemplateProcessing",
    "single": [
      {
        "SpecialToken": {
          "id": "<s>",
          "type_id": 0
        }
      },
      {
        "Sequence": {
          "id": "A",
          "type_id": 0
        }
      },
      {
        "SpecialToken": {
          "id": "</s>",
          "type_id": 0
        }
      }
    ],
    "pair": [
      {
        "SpecialToken": {
          "id": "<s>",
          "type_id": 0
        }
      },
      {
        "Sequence": {
          "id": "A",
          "type_id": 0
        }
      },
      {
        "SpecialToken": {
          "id": "</s>",
          "type_id": 0
        }
      },
      {
        "SpecialToken": {
          "id": "</s>",
          "type_id": 0
        }
      },
      {
        "Sequence": {
          "id": "B",
          "type_id": 0
        }
      },
      {
        "SpecialToken": {
          "id": "</s>",
          "type_id": 0
        }
      }
    ],
    "special_tokens": {
      "</s>": {
        "id": "</s>",
        "ids": [
          2
        ],
        "tokens": [
          "</s>"
        ]
      },
      "<s>": {
        "id": "<s>",
        "ids": [
          0
        ],
        "tokens": [
          "<s>"
        ]
      }
    }
  },
  "decoder": {
    "type": "Metaspace",
    "replacement": "▁",
    "prepend_scheme": "always",
    "split": true
  },
  "model": {
    "type": "Unigram",
    "unk_id": 3,
    "vocab": [
      [
        "<s>",
        0.0
      ],
      [
        "<pad>",
        0.0
      ],
      [
        "</s>",
        0.0
      ],
      [
        "<unk>",
        0.0
      ],
      [
        "の",
        -3.0783565044403076
      ],
      [
        "、",
        -3.1372668743133545
      ],
      [
        "。",
        -3.393639326095581
      ],
      [
        "は",
        -3.627462387084961
      ],
      [
        "に",
        -3.701543092727661
      ],
      [
        "を",
        -3.816685676574707
      ],
      [
        "で",
        -4.003973484039307
      ],
      [
        "と",
        -4.090993881225586
      ],
      [
        "が",
        -4.09657621383667
      ],
      [
        "・",
        -4.360480785369873
      ],
      [
        ")",
        -4.3956193923950195
      ],
      [
        "(",
        -4.40824031829834
      ],
      [
        "年",
        -4.410414695739746
      ],
      [
        "て",
        -4.567983627319336
      ],
      [
        "して",
        -4.8958916664123535
      ],
      [
        "ある",
        -5.085898399353027
      ],
      [
        "した",
        -5.173132419586182
      ],
      [
        "いる",
        -5.198245525360107
      ],
      [
        "する",
        -5.207828998565674
      ],
      [
        "月",
        -5.229438781738281
      ],
      [
        "「",
        -5.31046724319458
      ],
      [
        "」",
        -5.392078876495361
      ],
      [
        "から",
        -5.407728672027588
      ],
      [
        "日",
        -5.518890380859375
      ],
      [
        "も",
        -5.574049949645996
      ],
      [
        "し",
        -5.672860622406006
      ],
      [
        "2",
        -5.709936618804932
      ],
      [
        "1",
        -5.716064453125
      ],
      [
        "された",
        -5.796680450439453
      ],
      [
        "や",
        -5.9012980461120605
      ],
      [
        "され",
        -5.908141613006592
      ],
      [
        "3",
        -5.928022861480713
      ],
      [
        "こと",
        -5.955420017242432
      ],
      [
        "-",
        -5.991671085357666
      ],
      [
        "『",
        -6.013517379760742
      ],
      [
        "いた",
        -6.067329406738281
      ],
      [
        ":",
        -6.097992897033691
      ],
      [
        "など",
        -6.146312713623047
      ],
      [
        "4",
        -6.192348003387451
      ],
      [
        "』",
        -6.202109336853027
      ],
      [
        "その",
        -6.255155563354492
      ],
      [
        "この",
        -6.386700630187988
      ],
      [
        "第",
        -6.425609111785889
      ],
      [
        "日本",
        -6.4386186599731445
      ],
      [
        "ため",
        -6.44077205657959
      ],
      [
        "後",
        -6.447039604187012
      ],
      [
        "5",
        -6.488587856292725
      ],
      [
        "また",
        -6.567129135131836
      ],
      [
        "いう",
        -6.593433856964111
      ],
      [
        "6",
        -6.617189884185791
      ],
      [
        "なった",
        -6.618513107299805
      ],
      [
        "10",
        -6.636194705963135
      ],
      [
        "まで",
        -6.6578049659729
      ],
      [
        "人",
        -6.667527675628662
      ],
      [
        "へ",
        -6.682868957519531
      ],
      [
        "あり",
        -6.692047595977783
      ],
      [
        "あった",
        -6.698435306549072
      ],
      [
        "7",
        -6.720655918121338
      ],
      [
        "なる",
        -6.771605014801025
      ],
      [
        "8",
        -6.788765907287598
      ],
      [
        "な",
        -6.808770656585693
      ],
      [
        "される",
        -6.831948280334473
      ],
      [
        ",",
        -6.8383026123046875
      ],
      [
        "9",
        -6.846240520477295
      ],
      [
        "12",
        -6.95473575592041
      ],
      [
        "た",
        -6.982299327850342
      ],
      [
        ".",
        -7.005105495452881
      ],
      [
        "これ",
        -7.016571998596191
      ],
      [
        "市",
        -7.021122932434082
      ],
      [
        "大",
        -7.023359298706055
      ],
      [
        "る",
        -7.023792266845703
      ],
      [
        "による",
        -7.047321319580078
      ],
      [
        "s",
        -7.055695056915283
      ],
      [
        "おり",
        -7.072808265686035
      ],
      [
        "11",
        -7.083667278289795
      ],
      [
        "もの",
        -7.0921759605407715
      ],
      [
        "より",
        -7.095202445983887
      ],
      [
        "ことが",
        -7.125633716583252
      ],
      [
        "ス",
        -7.1587042808532715
      ],
      [
        "により",
        -7.174092769622803
      ],
      [
        "/",
        -7.174610137939453
      ],
      [
        "上",
        -7.176822185516357
      ],
      [
        "によっ",
        -7.1903300285339355
      ],
      [
        "なっ",
        -7.2214035987854
      ],
      [
        "時",
        -7.241251945495605
      ],
      [
        "町",
        -7.253453731536865
      ],
      [
        "a",
        -7.255712032318115
      ],
      [
        "m",
        -7.277673721313477
      ],
      [
        "名",
        -7.289546966552734
      ],
      [
        "的な",
        -7.294176578521728
      ],
      [
        "か",
        -7.311219215393066
      ],
      [
        "16",
        -7.369242191314697
      ],
      [
        "中",
        -7.386387348175049
      ],
      [
        "現在",
        -7.38948917388916
      ],
      [
        "駅",
        -7.417958736419678
      ],
      [
        "的に",
        -7.435738563537598
      ],
      [
        "元",
        -7.445999622344971
      ],
      [
        "的",
        -7.467264175415039
      ],
      [
        "山",
        -7.474730491638184
      ],
      [
        "一",
        -7.475014686584473
      ],
      [
        "におい",
        -7.478244781494141
      ],
      [
        "でも",
        -7.478861331939697
      ],
      [
        "者",
        -7.487912654876709
      ],
      [
        "他",
        -7.50202751159668
      ],
      [
        "性",
        -7.506879806518555
      ],
      [
        "線",
        -7.508223533630371
      ],
      [
        "本",
        -7.510008335113525
      ],
      [
        "20",
        -7.5135087966918945
      ],
      [
        "だった",
        -7.527677059173584
      ],
      [
        "内",
        -7.53775691986084
      ],
      [
        "郡",
        -7.539517879486084
      ],
      [
        "子",
        -7.542835712432861
      ],
      [
        "につい",
        -7.552560329437256
      ],
      [
        "家",
        -7.560757637023926
      ],
      [
        "15",
        -7.56133222579956
      ],
      [
        "場合",
        -7.564685821533203
      ],
      [
        "b",
        -7.572810649871826
      ],
      [
        "位",
        -7.57951545715332
      ],
      [
        "長",
        -7.584340572357178
      ],
      [
        "回",
        -7.587578296661377
      ],
      [
        "放送",
        -7.588607311248779
      ],
      [
        "c",
        -7.591914653778076
      ],
      [
        "ない",
        -7.592870712280273
      ],
      [
        "昭和",
        -7.602609634399414
      ],
      [
        "ズ",
        -7.614208221435547
      ],
      [
        "川",
        -7.615474224090576
      ],
      [
        "り",
        -7.618838310241699
      ],
      [
        "使用",
        -7.620809078216553
      ],
      [
        "にも",
        -7.623268127441406
      ],
      [
        "ア",
        -7.62554121017456
      ],
      [
        "新",
        -7.6339216232299805
      ],
      [
        "部",
        -7.635016441345215
      ],
      [
        "国",
        -7.656640529632568
      ],
      [
        "=",
        -7.657195091247559
      ],
      [
        "ド",
        -7.664227485656738
      ],
      [
        "17",
        -7.666470527648926
      ],
      [
        "号",
        -7.684653282165527
      ],
      [
        "ラ",
        -7.690120697021484
      ],
      [
        "って",
        -7.6953325271606445
      ],
      [
        "t",
        -7.696150302886963
      ],
      [
        "作品",
        -7.70950984954834
      ],
      [
        "ト",
        -7.711781024932861
      ],
      [
        "d",
        -7.711949348449707
      ],
      [
        "できる",
        -7.714075088500977
      ],
      [
        "英語版",
        -7.7224555015563965
      ],
      [
        "30",
        -7.739676475524902
      ],
      [
        "それ",
        -7.744544506072998
      ],
      [
        "および",
        -7.766281127929688
      ],
      [
        "形",
        -7.7674736976623535
      ],
      [
        "x",
        -7.774759292602539
      ],
      [
        "島",
        -7.774800300598144
      ],
      [
        "』(",
        -7.776576519012451
      ],
      [
        "分",
        -7.777395248413086
      ],
      [
        "彼",
        -7.779353141784668
      ],
      [
        "法",
        -7.780794620513916
      ],
      [
        "約",
        -7.781959056854248
      ],
      [
        "数",
        -7.783003330230713
      ],
      [
        "しかし",
        -7.787576675415039
      ],
      [
        "f",
        -7.791993141174316
      ],
      [
        "18",
        -7.793148040771484
      ],
      [
        "多く",
        -7.793286323547363
      ],
      [
        "大学",
        -7.797989368438721
      ],
      [
        "存在",
        -7.798480987548828
      ],
      [
        "活動",
        -7.798703193664551
      ],
      [
        "出身",
        -7.802049160003662
      ],
      [
        "三",
        -7.804004192352295
      ],
      [
        "同",
        -7.811232089996338
      ],
      [
        "化",
        -7.81275749206543
      ],
      [
        "n",
        -7.814911365509033
      ],
      [
        "東",
        -7.817726135253906
      ],
      [
        "村",
        -7.82476806640625
      ],
      [
        "戦",
        -7.830486297607422
      ],
      [
        "e",
        -7.83324146270752
      ],
      [
        "13",
        -7.8474578857421875
      ],
      [
        "ク",
        -7.854294776916504
      ],
      [
        "カ",
        -7.857539653778076
      ],
      [
        "\"",
        -7.860414028167725
      ],
      [
        "高",
        -7.861157417297363
      ],
      [
        "当時",
        -7.863533973693848
      ],
      [
        "小",
        -7.869016170501709
      ],
      [
        "所属",
        -7.87323522567749
      ],
      [
        "14",
        -7.874090194702148
      ],
      [
        "k",
        -7.875261783599853
      ],
      [
        "だ",
        -7.875861167907715
      ],
      [
        "同年",
        -7.877223491668701
      ],
      [
        "さ",
        -7.878800392150879
      ],
      [
        "ら",
        -7.881441593170166
      ],
      [
        "型",
        -7.8846116065979
      ],
      [
        "以下",
        -7.886511325836182
      ],
      [
        "前",
        -7.892162799835205
      ],
      [
        "発表",
        -7.893857479095459
      ],
      [
        "等",
        -7.912135124206543
      ],
      [
        "地",
        -7.916888236999512
      ],
      [
        "西",
        -7.918211460113525
      ],
      [
        "なく",
        -7.922232627868652
      ],
      [
        "ナ",
        -7.927196502685547
      ],
      [
        "南",
        -7.931740760803223
      ],
      [
        "g",
        -7.944811820983887
      ],
      [
        "水",
        -7.95220136642456
      ],
      [
        "全",
        -7.959675788879395
      ],
      [
        "発売",
        -7.960941791534424
      ],
      [
        "お",
        -7.969470500946045
      ],
      [
        "v",
        -7.97235918045044
      ],
      [
        "下",
        -7.972554683685303
      ],
      [
        "における",
        -7.974186420440674
      ],
      [
        "州",
        -7.974255561828613
      ],
      [
        "道",
        -7.974270820617676
      ],
      [
        "世界",
        -7.974445819854736
      ],
      [
        "となり",
        -7.9748101234436035
      ],
      [
        "19",
        -7.979976654052734
      ],
      [
        "北",
        -7.989854335784912
      ],
      [
        "地域",
        -7.993656635284424
      ],
      [
        "p",
        -7.993993759155273
      ],
      [
        "軍",
        -7.996766567230225
      ],
      [
        "なお",
        -8.0023832321167
      ],
      [
        "!",
        -8.009273529052734
      ],
      [
        "のみ",
        -8.012534141540527
      ],
      [
        "リ",
        -8.012873649597168
      ],
      [
        "用",
        -8.014421463012695
      ],
      [
        "平成",
        -8.015506744384766
      ],
      [
        "に対",
        -8.016347885131836
      ],
      [
        "開発",
        -8.020590782165527
      ],
      [
        "映画",
        -8.022146224975586
      ],
      [
        "r",
        -8.028375625610352
      ],
      [
        "世",
        -8.033673286437988
      ],
      [
        "際",
        -8.034245491027832
      ],
      [
        "とも",
        -8.037412643432617
      ],
      [
        "デ",
        -8.039813995361328
      ],
      [
        "開催",
        -8.041342735290527
      ],
      [
        "二",
        -8.052212715148926
      ],
      [
        "コ",
        -8.053482055664062
      ],
      [
        "ル",
        -8.053638458251953
      ],
      [
        "25",
        -8.065677642822266
      ],
      [
        "系",
        -8.06614875793457
      ],
      [
        "タ",
        -8.074423789978027
      ],
      [
        "東京",
        -8.077615737915039
      ],
      [
        "会",
        -8.08901596069336
      ],
      [
        "一部",
        -8.090274810791016
      ],
      [
        "アメリカ",
        -8.09224796295166
      ],
      [
        "h",
        -8.09722900390625
      ],
      [
        "&",
        -8.097858428955078
      ],
      [
        "i",
        -8.10130786895752
      ],
      [
        "ノ",
        -8.101729393005371
      ],
      [
        "21",
        -8.106219291687012
      ],
      [
        "%",
        -8.106419563293457
      ],
      [
        "マ",
        -8.109196662902832
      ],
      [
        "j",
        -8.113387107849121
      ],
      [
        "ダ",
        -8.113679885864258
      ],
      [
        "マン",
        -8.114188194274902
      ],
      [
        "式",
        -8.1167631149292
      ],
      [
        "い",
        -8.11707592010498
      ],
      [
        "城",
        -8.117128372192383
      ],
      [
        "次",
        -8.117382049560547
      ],
      [
        "歳",
        -8.122108459472656
      ],
      [
        "チーム",
        -8.12646770477295
      ],
      [
        "記録",
        -8.129485130310059
      ],
      [
        "代",
        -8.132206916809082
      ],
      [
        "時代",
        -8.136831283569336
      ],
      [
        "県",
        -8.139330863952637
      ],
      [
        "見",
        -8.141992568969727
      ],
      [
        "受け",
        -8.146075248718262
      ],
      [
        "女性",
        -8.146123886108398
      ],
      [
        "-)",
        -8.147991180419922
      ],
      [
        "田",
        -8.149079322814941
      ],
      [
        "社",
        -8.154288291931152
      ],
      [
        "語",
        -8.157204627990723
      ],
      [
        "0",
        -8.158415794372559
      ],
      [
        "す",
        -8.160149574279785
      ],
      [
        "進",
        -8.162071228027344
      ],
      [
        "金",
        -8.167081832885742
      ],
      [
        "王",
        -8.169525146484375
      ],
      [
        "24",
        -8.171431541442871
      ],
      [
        "機",
        -8.17626667022705
      ],
      [
        "いない",
        -8.17979621887207
      ],
      [
        "シリーズ",
        -8.180963516235352
      ],
      [
        "代表",
        -8.191055297851562
      ],
      [
        "参加",
        -8.191184043884277
      ],
      [
        "点",
        -8.192699432373047
      ],
      [
        "レ",
        -8.195704460144043
      ],
      [
        "試合",
        -8.195987701416016
      ],
      [
        "サ",
        -8.196028709411621
      ],
      [
        "曲",
        -8.196203231811523
      ],
      [
        "アルバム",
        -8.196687698364258
      ],
      [
        "エ",
        -8.19676685333252
      ],
      [
        "間",
        -8.199407577514648
      ],
      [
        "ム",
        -8.202117919921875
      ],
      [
        "22",
        -8.20471477508545
      ],
      [
        "版",
        -8.216347694396973
      ],
      [
        "経",
        -8.219011306762695
      ],
      [
        "23",
        -8.219996452331543
      ],
      [
        "〜",
        -8.22391128540039
      ],
      [
        "開始",
        -8.229632377624512
      ],
      [
        "l",
        -8.232219696044922
      ],
      [
        "共",
        -8.2346773147583
      ],
      [
        "ザ",
        -8.241801261901855
      ],
      [
        "れば",
        -8.242692947387695
      ],
      [
        "き",
        -8.244344711303711
      ],
      [
        "かけ",
        -8.244683265686035
      ],
      [
        "バ",
        -8.245413780212402
      ],
      [
        "度",
        -8.248525619506836
      ],
      [
        "生",
        -8.249920845031738
      ],
      [
        "フ",
        -8.252659797668457
      ],
      [
        "番組",
        -8.252898216247559
      ],
      [
        "きた",
        -8.253640174865723
      ],
      [
        "ジ",
        -8.255484580993652
      ],
      [
        "さらに",
        -8.256062507629395
      ],
      [
        "区",
        -8.259806632995605
      ],
      [
        "研究",
        -8.26144790649414
      ],
      [
        "位置",
        -8.264384269714355
      ],
      [
        "方",
        -8.264636993408203
      ],
      [
        "中心",
        -8.266682624816895
      ],
      [
        "初",
        -8.269882202148438
      ],
      [
        "光",
        -8.272642135620117
      ],
      [
        "正",
        -8.274662971496582
      ],
      [
        "オ",
        -8.277246475219727
      ],
      [
        "野",
        -8.278766632080078
      ],
      [
        "面",
        -8.279239654541016
      ],
      [
        "氏",
        -8.279738426208496
      ],
      [
        "2010",
        -8.28101921081543
      ],
      [
        "み",
        -8.28149127960205
      ],
      [
        "現",
        -8.282241821289062
      ],
      [
        "アメリカ合衆国",
        -8.283808708190918
      ],
      [
        "出場",
        -8.284340858459473
      ],
      [
        "神",
        -8.286666870117188
      ],
      [
        "ともに",
        -8.287188529968262
      ],
      [
        "手",
        -8.291182518005371
      ],
      [
        "事",
        -8.300278663635254
      ],
      [
        "監督",
        -8.300434112548828
      ],
      [
        "キ",
        -8.302942276000977
      ],
      [
        "期",
        -8.30373764038086
      ],
      [
        "力",
        -8.305967330932617
      ],
      [
        "イ",
        -8.306529998779297
      ],
      [
        "だけ",
        -8.30764389038086
      ],
      [
        "シ",
        -8.309846878051758
      ],
      [
        "」(",
        -8.316746711730957
      ],
      [
        "26",
        -8.32177448272705
      ],
      [
        "旧",
        -8.32273006439209
      ],
      [
        "関係",
        -8.323164939880371
      ],
      [
        "y",
        -8.323726654052734
      ],
      [
        "利用",
        -8.323914527893066
      ],
      [
        "ほか",
        -8.324020385742188
      ],
      [
        "フランス",
        -8.325393676757812
      ],
      [
        "u",
        -8.32619571685791
      ],
      [
        "登場",
        -8.328132629394531
      ],
      [
        "明治",
        -8.330392837524414
      ],
      [
        "28",
        -8.330458641052246
      ],
      [
        "つ",
        -8.33096694946289
      ],
      [
        "w",
        -8.331459999084473
      ],
      [
        "時間",
        -8.331658363342285
      ],
      [
        "設置",
        -8.332584381103516
      ],
      [
        "石",
        -8.33586311340332
      ],
      [
        "通り",
        -8.337573051452637
      ],
      [
        "勝",
        -8.338603019714355
      ],
      [
        "平",
        -8.343070983886719
      ],
      [
        "27",
        -8.343404769897461
      ],
      [
        "イギリス",
        -8.345083236694336
      ],
      [
        "行う",
        -8.345314025878906
      ],
      [
        "一般",
        -8.345983505249023
      ],
      [
        "うち",
        -8.346582412719727
      ],
      [
        "車",
        -8.346762657165527
      ],
      [
        "中国",
        -8.349401473999023
      ],
      [
        "呼ばれる",
        -8.349961280822754
      ],
      [
        "賞",
        -8.354818344116211
      ],
      [
        "ロ",
        -8.358748435974121
      ],
      [
        "木",
        -8.359506607055664
      ],
      [
        "なり",
        -8.35977554321289
      ],
      [
        "出",
        -8.360421180725098
      ],
      [
        "o",
        -8.36167049407959
      ],
      [
        "体",
        -8.367676734924316
      ],
      [
        "設立",
        -8.36938190460205
      ],
      [
        "寺",
        -8.370513916015625
      ],
      [
        "持つ",
        -8.372254371643066
      ],
      [
        "小学校",
        -8.375035285949707
      ],
      [
        "2011",
        -8.377921104431152
      ],
      [
        "リー",
        -8.379009246826172
      ],
      [
        "ティ",
        -8.381841659545898
      ],
      [
        "2019",
        -8.382255554199219
      ],
      [
        "2012",
        -8.382271766662598
      ],
      [
        "側",
        -8.384061813354492
      ],
      [
        "物",
        -8.386052131652832
      ],
      [
        "ながら",
        -8.389434814453125
      ],
      [
        "ディ",
        -8.389601707458496
      ],
      [
        ";",
        -8.391117095947266
      ],
      [
        "文",
        -8.391425132751465
      ],
      [
        "目",
        -8.39213752746582
      ],
      [
        "2009",
        -8.392919540405273
      ],
      [
        "く",
        -8.394166946411133
      ],
      [
        "いった",
        -8.39425277709961
      ],
      [
        "ゲーム",
        -8.394283294677734
      ],
      [
        "担当",
        -8.395524024963379
      ],
      [
        "2015",
        -8.397618293762207
      ],
      [
        "2008",
        -8.398255348205566
      ],
      [
        "出演",
        -8.399669647216797
      ],
      [
        "2014",
        -8.400641441345215
      ],
      [
        "2016",
        -8.401775360107422
      ],
      [
        "必要",
        -8.4028902053833
      ],
      [
        "2020",
        -8.403230667114258
      ],
      [
        "ドイツ",
        -8.40557861328125
      ],
      [
        "2018",
        -8.410722732543945
      ],
      [
        "選手",
        -8.415966033935547
      ],
      [
        "英",
        -8.416417121887207
      ],
      [
        "29",
        -8.417330741882324
      ],
      [
        "原",
        -8.417597770690918
      ],
      [
        "年代",
        -8.418006896972656
      ],
      [
        "外",
        -8.418313026428223
      ],
      [
        "2017",
        -8.420656204223633
      ],
      [
        "各",
        -8.421231269836426
      ],
      [
        "国際",
        -8.421378135681152
      ],
      [
        "海",
        -8.421809196472168
      ],
      [
        "英語",
        -8.421985626220703
      ],
      [
        "シーズン",
        -8.424662590026855
      ],
      [
        "2007",
        -8.425811767578125
      ],
      [
        "つの",
        -8.426276206970215
      ],
      [
        "変更",
        -8.427329063415527
      ],
      [
        "2013",
        -8.42968463897705
      ],
      [
        "km",
        -8.429834365844727
      ],
      [
        "鉄道",
        -8.431188583374023
      ],
      [
        "以降",
        -8.44586181640625
      ],
      [
        "たち",
        -8.446398735046387
      ],
      [
        "チ",
        -8.448981285095215
      ],
      [
        "問題",
        -8.450292587280273
      ],
      [
        "」「",
        -8.453163146972656
      ],
      [
        "無",
        -8.45531940460205
      ],
      [
        "ミ",
        -8.45655345916748
      ],
      [
        "ガ",
        -8.458109855651855
      ],
      [
        "獲得",
        -8.458976745605469
      ],
      [
        "2000",
        -8.46279239654541
      ],
      [
        "意味",
        -8.464125633239746
      ],
      [
        "グループ",
        -8.465198516845703
      ],
      [
        "科",
        -8.466053009033203
      ],
      [
        "ツ",
        -8.466085433959961
      ],
      [
        "一つ",
        -8.467494010925293
      ],
      [
        "美",
        -8.467798233032227
      ],
      [
        "100",
        -8.468805313110352
      ],
      [
        "及び",
        -8.469673156738281
      ],
      [
        "行",
        -8.47269058227539
      ],
      [
        "種",
        -8.47353458404541
      ],
      [
        "話",
        -8.47388744354248
      ],
      [
        "シュ",
        -8.474592208862305
      ],
      [
        "ニ",
        -8.481925010681152
      ],
      [
        "ネ",
        -8.48343276977539
      ],
      [
        "the",
        -8.484489440917969
      ],
      [
        "の間",
        -8.486268997192383
      ],
      [
        "2021",
        -8.487563133239746
      ],
      [
        "+",
        -8.488242149353027
      ],
      [
        "2006",
        -8.489119529724121
      ],
      [
        "多い",
        -8.491436958312988
      ],
      [
        "就任",
        -8.493366241455078
      ],
      [
        "影響",
        -8.495619773864746
      ],
      [
        "万",
        -8.498785018920898
      ],
      [
        "得",
        -8.49892520904541
      ],
      [
        "音楽",
        -8.49937629699707
      ],
      [
        "父",
        -8.50019645690918
      ],
      [
        "結果",
        -8.503069877624512
      ],
      [
        "学",
        -8.503460884094238
      ],
      [
        "務めた",
        -8.507518768310547
      ],
      [
        "特に",
        -8.507548332214355
      ],
      [
        "事業",
        -8.508049011230469
      ],
      [
        "和",
        -8.510603904724121
      ],
      [
        "作",
        -8.511007308959961
      ],
      [
        "株式会社",
        -8.511549949645996
      ],
      [
        "最初",
        -8.51990032196045
      ],
      [
        "総",
        -8.521663665771484
      ],
      [
        "始め",
        -8.524969100952148
      ],
      [
        "大会",
        -8.527830123901367
      ],
      [
        "かつて",
        -8.527838706970215
      ],
      [
        "両",
        -8.527921676635742
      ],
      [
        "った",
        -8.528609275817871
      ],
      [
        "事件",
        -8.529131889343262
      ],
      [
        "中学校",
        -8.532696723937988
      ],
      [
        "別",
        -8.533255577087402
      ],
      [
        "31",
        -8.534674644470215
      ],
      [
        "所",
        -8.53524112701416
      ],
      [
        "セ",
        -8.539831161499023
      ],
      [
        "計画",
        -8.544013023376465
      ],
      [
        "都市",
        -8.545327186584473
      ],
      [
        "リーグ",
        -8.55117130279541
      ],
      [
        "パ",
        -8.552001953125
      ],
      [
        "とき",
        -8.552450180053711
      ],
      [
        "こ",
        -8.554859161376953
      ],
      [
        "公",
        -8.555222511291504
      ],
      [
        "地区",
        -8.555359840393066
      ],
      [
        "高等学校",
        -8.555962562561035
      ],
      [
        "場",
        -8.555999755859375
      ],
      [
        "#",
        -8.557486534118652
      ],
      [
        "明",
        -8.55765438079834
      ],
      [
        "一方",
        -8.5594482421875
      ],
      [
        "年間",
        -8.559990882873535
      ],
      [
        "建設",
        -8.560272216796875
      ],
      [
        "2022",
        -8.563458442687988
      ],
      [
        "人口",
        -8.564342498779297
      ],
      [
        "z",
        -8.566585540771484
      ],
      [
        "ン",
        -8.567283630371094
      ],
      [
        "50",
        -8.568096160888672
      ],
      [
        "構成",
        -8.56911849975586
      ],
      [
        "風",
        -8.569477081298828
      ],
      [
        "バス",
        -8.571573257446289
      ],
      [
        "自身",
        -8.571638107299805
      ],
      [
        "なかった",
        -8.572209358215332
      ],
      [
        "制作",
        -8.574042320251465
      ],
      [
        "男性",
        -8.576725006103516
      ],
      [
        "立",
        -8.57719898223877
      ],
      [
        "販売",
        -8.577245712280273
      ],
      [
        "グ",
        -8.58140754699707
      ],
      [
        "学校",
        -8.582021713256836
      ],
      [
        "それぞれ",
        -8.582533836364746
      ],
      [
        "以上",
        -8.584278106689453
      ],
      [
        "不",
        -8.584600448608398
      ],
      [
        "可能",
        -8.585583686828613
      ],
      [
        "40",
        -8.587510108947754
      ],
      [
        "'",
        -8.590085983276367
      ],
      [
        "教育",
        -8.596261024475098
      ],
      [
        "ば",
        -8.596330642700195
      ],
      [
        "プロ",
        -8.598834037780762
      ],
      [
        "当初",
        -8.601211547851562
      ],
      [
        "同じ",
        -8.601669311523438
      ],
      [
        "サン",
        -8.602005958557129
      ],
      [
        "重",
        -8.602558135986328
      ],
      [
        "書",
        -8.602741241455078
      ],
      [
        "2005",
        -8.60309886932373
      ],
      [
        "ビ",
        -8.603168487548828
      ],
      [
        "ブ",
        -8.606321334838867
      ],
      [
        "イン",
        -8.6082181930542
      ],
      [
        "橋",
        -8.609816551208496
      ],
      [
        "部分",
        -8.610865592956543
      ],
      [
        "そして",
        -8.611261367797852
      ],
      [
        "ように",
        -8.612125396728516
      ],
      [
        "級",
        -8.617452621459961
      ],
      [
        "局",
        -8.617841720581055
      ],
      [
        "アン",
        -8.618746757507324
      ],
      [
        "役",
        -8.62051010131836
      ],
      [
        "馬",
        -8.621240615844727
      ],
      [
        "中で",
        -8.622617721557617
      ],
      [
        "行われ",
        -8.627548217773438
      ],
      [
        "アル",
        -8.627717971801758
      ],
      [
        "cm",
        -8.628167152404785
      ],
      [
        "発生",
        -8.62826156616211
      ],
      [
        "地方",
        -8.628887176513672
      ],
      [
        "天",
        -8.630365371704102
      ],
      [
        "花",
        -8.633481979370117
      ],
      [
        "テ",
        -8.635702133178711
      ],
      [
        "以外",
        -8.635848999023438
      ],
      [
        "企業",
        -8.63787841796875
      ],
      [
        "優勝",
        -8.640350341796875
      ],
      [
        "義",
        -8.640714645385742
      ],
      [
        "らの",
        -8.641335487365723
      ],
      [
        "システム",
        -8.643285751342773
      ],
      [
        "主",
        -8.644548416137695
      ],
      [
        "公開",
        -8.64628791809082
      ],
      [
        "参照",
        -8.648367881774902
      ],
      [
        "行われた",
        -8.650909423828125
      ],
      [
        "させる",
        -8.652292251586914
      ],
      [
        "とした",
        -8.65396499633789
      ],
      [
        "情報",
        -8.653979301452637
      ],
      [
        "プ",
        -8.656635284423828
      ],
      [
        "ハ",
        -8.657622337341309
      ],
      [
        "船",
        -8.665640830993652
      ],
      [
        "モ",
        -8.665928840637207
      ],
      [
        "口",
        -8.669234275817871
      ],
      [
        "こう",
        -8.671745300292969
      ],
      [
        "メンバー",
        -8.675385475158691
      ],
      [
        "通",
        -8.67578411102295
      ],
      [
        "収録",
        -8.676963806152344
      ],
      [
        "メ",
        -8.677682876586914
      ],
      [
        "音",
        -8.677722930908203
      ],
      [
        "文化",
        -8.679649353027344
      ],
      [
        "会社",
        -8.68095874786377
      ],
      [
        "谷",
        -8.681509017944336
      ],
      [
        "ケ",
        -8.682751655578613
      ],
      [
        "ほど",
        -8.68578052520752
      ],
      [
        "in",
        -8.687283515930176
      ],
      [
        "台",
        -8.687861442565918
      ],
      [
        "ゴ",
        -8.688187599182129
      ],
      [
        "心",
        -8.690482139587402
      ],
      [
        "行った",
        -8.693532943725586
      ],
      [
        "関する",
        -8.694075584411621
      ],
      [
        "カー",
        -8.694844245910645
      ],
      [
        "したが",
        -8.697063446044922
      ],
      [
        "トン",
        -8.699234008789062
      ],
      [
        "世紀",
        -8.699305534362793
      ],
      [
        "行っ",
        -8.703328132629395
      ],
      [
        "ウ",
        -8.70616340637207
      ],
      [
        "色",
        -8.712142944335938
      ],
      [
        "ipa",
        -8.712231636047363
      ],
      [
        "白",
        -8.715771675109863
      ],
      [
        "中に",
        -8.71613883972168
      ],
      [
        "~",
        -8.716669082641602
      ],
      [
        "主に",
        -8.716793060302734
      ],
      [
        "最後",
        -8.717323303222656
      ],
      [
        "真",
        -8.71801471710205
      ],
      [
        "施設",
        -8.723746299743652
      ],
      [
        "状態",
        -8.723892211914062
      ],
      [
        "続け",
        -8.72472095489502
      ],
      [
        "モデル",
        -8.727991104125977
      ],
      [
        "ラン",
        -8.728050231933594
      ],
      [
        "屋",
        -8.728322982788086
      ],
      [
        "採用",
        -8.73525619506836
      ],
      [
        "リリース",
        -8.735433578491211
      ],
      [
        "テレビ",
        -8.73778247833252
      ],
      [
        "名称",
        -8.73849105834961
      ],
      [
        "2004",
        -8.739702224731445
      ],
      [
        "向け",
        -8.740965843200684
      ],
      [
        "先",
        -8.74195671081543
      ],
      [
        "歴史",
        -8.742115020751953
      ],
      [
        "バー",
        -8.742315292358398
      ],
      [
        "複数",
        -8.743193626403809
      ],
      [
        "ヤ",
        -8.745279312133789
      ],
      [
        "派",
        -8.746323585510254
      ],
      [
        "例",
        -8.747075080871582
      ],
      [
        "信",
        -8.749556541442871
      ],
      [
        "シングル",
        -8.751029968261719
      ],
      [
        "古",
        -8.75150203704834
      ],
      [
        "ー",
        -8.751875877380371
      ],
      [
        "頭",
        -8.752264022827148
      ],
      [
        "技術",
        -8.752367973327637
      ],
      [
        "目的",
        -8.757137298583984
      ],
      [
        "本作",
        -8.7572603225708
      ],
      [
        "機能",
        -8.757804870605469
      ],
      [
        "清",
        -8.758986473083496
      ],
      [
        "教授",
        -8.760289192199707
      ],
      [
        "実施",
        -8.763168334960938
      ],
      [
        "受賞",
        -8.765578269958496
      ],
      [
        "政府",
        -8.766369819641113
      ],
      [
        "男",
        -8.770212173461914
      ],
      [
        "ま",
        -8.772418022155762
      ],
      [
        "朝",
        -8.77285385131836
      ],
      [
        "社会",
        -8.774043083190918
      ],
      [
        "組織",
        -8.778083801269531
      ],
      [
        "番",
        -8.77820873260498
      ],
      [
        "製造",
        -8.779306411743164
      ],
      [
        "中央",
        -8.785970687866211
      ],
      [
        "着",
        -8.787967681884766
      ],
      [
        "含む",
        -8.790948867797852
      ],
      [
        "契約",
        -8.791152954101562
      ],
      [
        "ただし",
        -8.79783821105957
      ],
      [
        "の中",
        -8.80353832244873
      ],
      [
        "ボ",
        -8.80574893951416
      ],
      [
        "しない",
        -8.805779457092285
      ],
      [
        "安",
        -8.808785438537598
      ],
      [
        "のような",
        -8.80942153930664
      ],
      [
        "協会",
        -8.809528350830078
      ],
      [
        "のように",
        -8.811150550842285
      ],
      [
        "センター",
        -8.814371109008789
      ],
      [
        "ても",
        -8.820818901062012
      ],
      [
        "デビュー",
        -8.821452140808105
      ],
      [
        "受けた",
        -8.822688102722168
      ],
      [
        "直",
        -8.82300853729248
      ],
      [
        "年度",
        -8.825122833251953
      ],
      [
        "とされる",
        -8.825789451599121
      ],
      [
        "{\\",
        -8.826828956604004
      ],
      [
        "星",
        -8.827958106994629
      ],
      [
        "活躍",
        -8.828353881835938
      ],
      [
        "流",
        -8.8335599899292
      ],
      [
        "車両",
        -8.8352689743042
      ],
      [
        "決定",
        -8.844949722290039
      ],
      [
        "運営",
        -8.845864295959473
      ],
      [
        "成",
        -8.847060203552246
      ],
      [
        "非",
        -8.847497940063477
      ],
      [
        "夫",
        -8.847838401794434
      ],
      [
        "re",
        -8.8489351272583
      ],
      [
        "史",
        -8.849629402160645
      ],
      [
        "門",
        -8.850305557250977
      ],
      [
        "実",
        -8.851058006286621
      ],
      [
        "挙げ",
        -8.852234840393066
      ],
      [
        "ところ",
        -8.852672576904297
      ],
      [
        "室",
        -8.854268074035645
      ],
      [
        "de",
        -8.854584693908691
      ],
      [
        "大阪",
        -8.854710578918457
      ],
      [
        "クラブ",
        -8.854828834533691
      ],
      [
        "ラー",
        -8.855830192565918
      ],
      [
        "卒業",
        -8.855864524841309
      ],
      [
        "ず",
        -8.855914115905762
      ],
      [
        "ヒ",
        -8.856377601623535
      ],
      [
        "戦い",
        -8.858311653137207
      ],
      [
        "名前",
        -8.858636856079102
      ],
      [
        "久",
        -8.859458923339844
      ],
      [
        "対応",
        -8.86003589630127
      ],
      [
        "2003",
        -8.860736846923828
      ],
      [
        ")」",
        -8.86113452911377
      ],
      [
        "副",
        -8.861391067504883
      ],
      [
        "再",
        -8.861815452575684
      ],
      [
        "発見",
        -8.863606452941895
      ],
      [
        "られる",
        -8.863619804382324
      ],
      [
        "愛",
        -8.866656303405762
      ],
      [
        "en",
        -8.866852760314941
      ],
      [
        "路線",
        -8.868790626525879
      ],
      [
        "ロシア",
        -8.869431495666504
      ],
      [
        "論",
        -8.869470596313477
      ],
      [
        "イタリア",
        -8.870346069335938
      ],
      [
        "2023",
        -8.870678901672363
      ],
      [
        "経済",
        -8.871365547180176
      ],
      [
        "全国",
        -8.87327766418457
      ],
      [
        "シー",
        -8.87348747253418
      ],
      [
        "市立",
        -8.874092102050781
      ],
      [
        "宮",
        -8.87424373626709
      ],
      [
        "権",
        -8.875436782836914
      ],
      [
        "属",
        -8.877971649169922
      ],
      [
        "攻撃",
        -8.878053665161133
      ],
      [
        "う",
        -8.87817668914795
      ],
      [
        "吉",
        -8.878426551818848
      ],
      [
        "管理",
        -8.88004207611084
      ],
      [
        "リン",
        -8.880301475524902
      ],
      [
        "館",
        -8.88270092010498
      ],
      [
        "したもの",
        -8.885401725769043
      ],
      [
        "]",
        -8.886479377746582
      ],
      [
        "fc",
        -8.886565208435059
      ],
      [
        "[",
        -8.888110160827637
      ],
      [
        "000",
        -8.89028549194336
      ],
      [
        "あ",
        -8.89792537689209
      ],
      [
        "座",
        -8.899455070495605
      ],
      [
        "歌",
        -8.899995803833008
      ],
      [
        "選挙",
        -8.90079402923584
      ],
      [
        "構造",
        -8.902273178100586
      ],
      [
        "サービス",
        -8.902884483337402
      ],
      [
        "巻",
        -8.903013229370117
      ],
      [
        "ジョン",
        -8.904738426208496
      ],
      [
        "最終",
        -8.90506649017334
      ],
      [
        "調査",
        -8.905864715576172
      ],
      [
        "よう",
        -8.9065523147583
      ],
      [
        "場所",
        -8.907356262207031
      ],
      [
        "全て",
        -8.907952308654785
      ],
      [
        "院",
        -8.908461570739746
      ],
      [
        "生まれ",
        -8.915684700012207
      ],
      [
        "ワ",
        -8.916537284851074
      ],
      [
        "母",
        -8.91766357421875
      ],
      [
        "られた",
        -8.91772174835205
      ],
      [
        "コン",
        -8.91882610321045
      ],
      [
        "1990",
        -8.919230461120605
      ],
      [
        "生活",
        -8.922329902648926
      ],
      [
        "自分",
        -8.92282485961914
      ],
      [
        "させ",
        -8.924260139465332
      ],
      [
        "評価",
        -8.924542427062988
      ],
      [
        "制",
        -8.927650451660156
      ],
      [
        "説",
        -8.928584098815918
      ],
      [
        "条",
        -8.928606986999512
      ],
      [
        "女",
        -8.930147171020508
      ],
      [
        "ソ",
        -8.930418014526367
      ],
      [
        "エル",
        -8.932679176330566
      ],
      [
        "量",
        -8.93384838104248
      ],
      [
        "ソン",
        -8.934938430786133
      ],
      [
        "政",
        -8.935052871704102
      ],
      [
        "多",
        -8.937857627868652
      ],
      [
        "バンド",
        -8.93993854522705
      ],
      [
        "以前",
        -8.940238952636719
      ],
      [
        "60",
        -8.941673278808594
      ],
      [
        "果た",
        -8.943943977355957
      ],
      [
        "五",
        -8.944541931152344
      ],
      [
        "雄",
        -8.947015762329102
      ],
      [
        "人物",
        -8.947376251220703
      ],
      [
        "2002",
        -8.947493553161621
      ],
      [
        "設計",
        -8.948431968688965
      ],
      [
        "予定",
        -8.950020790100098
      ],
      [
        "店",
        -8.951469421386719
      ],
      [
        "江",
        -8.952601432800293
      ],
      [
        "死去",
        -8.953219413757324
      ],
      [
        "ほとんど",
        -8.955065727233887
      ],
      [
        "指定",
        -8.957236289978027
      ],
      [
        "表記",
        -8.958321571350098
      ],
      [
        "戦争",
        -8.959931373596191
      ],
      [
        "生産",
        -8.960223197937012
      ],
      [
        "そこ",
        -8.961033821105957
      ],
      [
        "基",
        -8.961867332458496
      ],
      [
        "有",
        -8.96307373046875
      ],
      [
        "内容",
        -8.964632034301758
      ],
      [
        "対",
        -8.96529769897461
      ],
      [
        "類",
        -8.96688175201416
      ],
      [
        "2001",
        -8.967445373535156
      ],
      [
        "神社",
        -8.968889236450195
      ],
      [
        "妻",
        -8.969740867614746
      ],
      [
        "?",
        -8.96976375579834
      ],
      [
        "いく",
        -8.972139358520508
      ],
      [
        "状",
        -8.973405838012695
      ],
      [
        "娘",
        -8.974489212036133
      ],
      [
        "移籍",
        -8.975055694580078
      ],
      [
        "マー",
        -8.975241661071777
      ],
      [
        "er",
        -8.9757661819458
      ],
      [
        "武",
        -8.976335525512695
      ],
      [
        "初めて",
        -8.976468086242676
      ],
      [
        "ˈ",
        -8.979432106018066
      ],
      [
        "設定",
        -8.979536056518555
      ],
      [
        "春",
        -8.981218338012695
      ],
      [
        "製作",
        -8.981769561767578
      ],
      [
        "何",
        -8.982457160949707
      ],
      [
        "ベ",
        -8.983844757080078
      ],
      [
        "特別",
        -8.984152793884277
      ],
      [
        "四",
        -8.984496116638184
      ],
      [
        "スター",
        -8.985133171081543
      ],
      [
        "通常",
        -8.985766410827637
      ],
      [
        "勝利",
        -8.987451553344727
      ],
      [
        "務め",
        -8.989546775817871
      ],
      [
        "特徴",
        -8.990545272827148
      ],
      [
        "丸",
        -8.991755485534668
      ],
      [
        "由来",
        -8.992328643798828
      ],
      [
        "森",
        -8.993123054504395
      ],
      [
        "提供",
        -8.993910789489746
      ],
      [
        "群",
        -8.995220184326172
      ],
      [
        "最大",
        -8.996106147766113
      ],
      [
        "井",
        -8.996502876281738
      ],
      [
        "まま",
        -8.99747371673584
      ],
      [
        "タイトル",
        -8.998461723327637
      ],
      [
        "気",
        -9.001142501831055
      ],
      [
        "させた",
        -9.002242088317871
      ],
      [
        "同時",
        -9.002401351928711
      ],
      [
        "基本",
        -9.004782676696777
      ],
      [
        "独立",
        -9.006768226623535
      ],
      [
        "松",
        -9.008096694946287
      ],
      [
        ":/",
        -9.00896167755127
      ],
      [
        "廃止",
        -9.00994110107422
      ],
      [
        "聖",
        -9.011263847351074
      ],
      [
        "女子",
        -9.01136589050293
      ],
      [
        "運動",
        -9.012815475463867
      ],
      [
        "導入",
        -9.01339626312256
      ],
      [
        "いて",
        -9.01595973968506
      ],
      [
        "高校",
        -9.017035484313965
      ],
      [
        "八",
        -9.017815589904783
      ],
      [
        "成功",
        -9.018667221069336
      ],
      [
        "治",
        -9.01931858062744
      ],
      [
        "対象",
        -9.020527839660645
      ],
      [
        "結婚",
        -9.024556159973145
      ],
      [
        "すべて",
        -9.026000022888184
      ],
      [
        "異なる",
        -9.026716232299805
      ],
      [
        "to",
        -9.029123306274414
      ],
      [
        "人間",
        -9.032923698425291
      ],
      [
        "官",
        -9.033211708068848
      ],
      [
        "翌",
        -9.03339958190918
      ],
      [
        "様々な",
        -9.036269187927246
      ],
      [
        "字",
        -9.036566734313965
      ],
      [
        "運行",
        -9.037029266357422
      ],
      [
        "今",
        -9.03736400604248
      ],
      [
        "第一",
        -9.037781715393066
      ],
      [
        "林",
        -9.04085922241211
      ],
      [
        "彼女",
        -9.041969299316406
      ],
      [
        "搭載",
        -9.04257869720459
      ],
      [
        "デザイン",
        -9.043187141418455
      ],
      [
        "葉",
        -9.04341983795166
      ],
      [
        ".5",
        -9.043476104736328
      ],
      [
        "ここ",
        -9.044068336486816
      ],
      [
        "之",
        -9.04530143737793
      ],
      [
        "展開",
        -9.04662799835205
      ],
      [
        "俳優",
        -9.048001289367676
      ],
      [
        "宗",
        -9.048437118530272
      ],
      [
        "実際",
        -9.052812576293944
      ],
      [
        "スポーツ",
        -9.054901123046877
      ],
      [
        "円",
        -9.055673599243164
      ],
      [
        "政治",
        -9.056127548217772
      ],
      [
        "御",
        -9.05616855621338
      ],
      [
        "あるいは",
        -9.061768531799316
      ],
      [
        "組",
        -9.061827659606934
      ],
      [
        "ポ",
        -9.062943458557127
      ],
      [
        "のち",
        -9.06455421447754
      ],
      [
        "mm",
        -9.067038536071776
      ],
      [
        "米",
        -9.06923484802246
      ],
      [
        "北海道",
        -9.070138931274414
      ],
      [
        "ヨーロッパ",
        -9.071005821228027
      ],
      [
        "尾",
        -9.072418212890623
      ],
      [
        "画",
        -9.07247829437256
      ],
      [
        "cd",
        -9.072875022888184
      ],
      [
        "ホ",
        -9.073479652404783
      ],
      [
        "委員会",
        -9.073508262634276
      ],
      [
        "広",
        -9.076241493225098
      ],
      [
        "al",
        -9.078473091125488
      ],
      [
        "ベル",
        -9.08002471923828
      ],
      [
        "夏",
        -9.080120086669922
      ],
      [
        "ファン",
        -9.081210136413574
      ],
      [
        "全体",
        -9.081955909729004
      ],
      [
        "舞台",
        -9.081972122192385
      ],
      [
        "ギ",
        -9.085386276245115
      ],
      [
        "終了",
        -9.086770057678224
      ],
      [
        "党",
        -9.086817741394045
      ],
      [
        "製",
        -9.08737087249756
      ],
      [
        "多数",
        -9.088689804077148
      ],
      [
        "結成",
        -9.088780403137209
      ],
      [
        "取り",
        -9.089274406433104
      ],
      [
        "士",
        -9.089523315429688
      ],
      [
        "企画",
        -9.089622497558594
      ],
      [
        "前に",
        -9.090874671936035
      ],
      [
        "声",
        -9.092829704284668
      ],
      [
        "じ",
        -9.09321403503418
      ],
      [
        "ター",
        -9.094063758850098
      ],
      [
        "”",
        -9.094537734985352
      ],
      [
        "1999",
        -9.095135688781738
      ],
      [
        "支援",
        -9.097003936767578
      ],
      [
        "ジャ",
        -9.097593307495115
      ],
      [
        "出版",
        -9.09774112701416
      ],
      [
        "人が",
        -9.098389625549316
      ],
      [
        "関連",
        -9.100462913513184
      ],
      [
        "め",
        -9.102255821228027
      ],
      [
        "1980",
        -9.102781295776367
      ],
      [
        "藩",
        -9.10391616821289
      ],
      [
        "ナー",
        -9.104265213012695
      ],
      [
        "再び",
        -9.104297637939451
      ],
      [
        "国家",
        -9.104660987854004
      ],
      [
        "部隊",
        -9.10598087310791
      ],
      [
        "定",
        -9.107789993286133
      ],
      [
        "表",
        -9.108909606933594
      ],
      [
        "エンジン",
        -9.110236167907717
      ],
      [
        "教会",
        -9.112150192260742
      ],
      [
        "韓国",
        -9.112701416015623
      ],
      [
        "隊",
        -9.112754821777344
      ],
      [
        "キャラクター",
        -9.1143798828125
      ],
      [
        "理由",
        -9.114426612854004
      ],
      [
        "ち",
        -9.116939544677734
      ],
      [
        "分類",
        -9.117142677307127
      ],
      [
        "変化",
        -9.117552757263184
      ],
      [
        "達",
        -9.117748260498049
      ],
      [
        "アー",
        -9.118465423583984
      ],
      [
        "団体",
        -9.119380950927734
      ],
      [
        "us",
        -9.12086009979248
      ],
      [
        "of",
        -9.12106227874756
      ],
      [
        "の第",
        -9.122072219848633
      ],
      [
        "え",
        -9.122611045837402
      ],
      [
        "カル",
        -9.123598098754885
      ],
      [
        "さん",
        -9.123811721801758
      ],
      [
        "q",
        -9.124629974365234
      ],
      [
        "35",
        -9.125313758850098
      ],
      [
        "津",
        -9.125935554504396
      ],
      [
        "環境",
        -9.12972640991211
      ],
      [
        "国内",
        -9.131277084350586
      ],
      [
        "節",
        -9.132034301757812
      ],
      [
        "列車",
        -9.133481979370115
      ],
      [
        "レイ",
        -9.13366413116455
      ],
      [
        "持ち",
        -9.135973930358888
      ],
      [
        "太",
        -9.13657283782959
      ],
      [
        "志",
        -9.136920928955078
      ],
      [
        "ビル",
        -9.13828182220459
      ],
      [
        "jr",
        -9.139591217041016
      ],
      [
        "ゲ",
        -9.141053199768066
      ],
      [
        "ピ",
        -9.14353370666504
      ],
      [
        "里",
        -9.14416217803955
      ],
      [
        "良",
        -9.144378662109377
      ],
      [
        "徳",
        -9.145421981811523
      ],
      [
        "形成",
        -9.146467208862305
      ],
      [
        "方法",
        -9.14676570892334
      ],
      [
        "校",
        -9.14682674407959
      ],
      [
        "道路",
        -9.148438453674316
      ],
      [
        "楽曲",
        -9.150071144104004
      ],
      [
        "とし",
        -9.151826858520508
      ],
      [
        "兵",
        -9.15218448638916
      ],
      [
        "カード",
        -9.153849601745604
      ],
      [
        "個",
        -9.154312133789062
      ],
      [
        "文字",
        -9.154390335083008
      ],
      [
        "相",
        -9.15583038330078
      ],
      [
        "初期",
        -9.15638542175293
      ],
      [
        "初代",
        -9.157918930053713
      ],
      [
        "選出",
        -9.15930461883545
      ],
      [
        "ペ",
        -9.159788131713867
      ],
      [
        "発",
        -9.16006088256836
      ],
      [
        "70",
        -9.160088539123535
      ],
      [
        "小説",
        -9.1604585647583
      ],
      [
        "カン",
        -9.16132926940918
      ],
      [
        "ヴィ",
        -9.162869453430176
      ],
      [
        "ロー",
        -9.163013458251951
      ],
      [
        "レース",
        -9.164013862609863
      ],
      [
        "む",
        -9.16476345062256
      ],
      [
        "しても",
        -9.164915084838867
      ],
      [
        "品",
        -9.1662015914917
      ],
      [
        "ニー",
        -9.166646003723145
      ],
      [
        "\\",
        -9.168521881103516
      ],
      [
        "太郎",
        -9.168710708618164
      ],
      [
        "一人",
        -9.171236038208008
      ],
      [
        "ポジション",
        -9.171412467956545
      ],
      [
        "ファ",
        -9.171801567077637
      ],
      [
        "根",
        -9.171945571899414
      ],
      [
        "部門",
        -9.172258377075195
      ],
      [
        "ゼ",
        -9.173151016235352
      ],
      [
        "80",
        -9.173441886901855
      ],
      [
        "スト",
        -9.17380714416504
      ],
      [
        "1998",
        -9.175616264343262
      ],
      [
        "政治家",
        -9.175704002380373
      ],
      [
        "大正",
        -9.176218032836914
      ],
      [
        "死",
        -9.1765775680542
      ],
      [
        "とされ",
        -9.176952362060549
      ],
      [
        "表現",
        -9.181279182434082
      ],
      [
        "族",
        -9.182896614074709
      ],
      [
        "no",
        -9.18388557434082
      ],
      [
        "タイ",
        -9.184353828430176
      ],
      [
        "ダー",
        -9.185301780700684
      ],
      [
        "親",
        -9.186102867126465
      ],
      [
        "だと",
        -9.186440467834473
      ],
      [
        "きない",
        -9.187000274658203
      ],
      [
        "領",
        -9.18779182434082
      ],
      [
        "以来",
        -9.189214706420898
      ],
      [
        "比較",
        -9.18923282623291
      ],
      [
        "→",
        -9.190263748168944
      ],
      [
        "データ",
        -9.190513610839844
      ],
      [
        "々",
        -9.190731048583984
      ],
      [
        "シャ",
        -9.191561698913574
      ],
      [
        "完成",
        -9.191667556762695
      ],
      [
        "戸",
        -9.192094802856444
      ],
      [
        "身",
        -9.193751335144045
      ],
      [
        "行い",
        -9.194707870483398
      ],
      [
        "足",
        -9.194833755493164
      ],
      [
        "イベント",
        -9.196650505065918
      ],
      [
        "られて",
        -9.197442054748535
      ],
      [
        "形式",
        -9.197503089904783
      ],
      [
        "湖",
        -9.19807243347168
      ],
      [
        "ラジオ",
        -9.198678970336914
      ],
      [
        "岩",
        -9.199584007263184
      ],
      [
        "公園",
        -9.200645446777344
      ],
      [
        "未",
        -9.20179557800293
      ],
      [
        "京都",
        -9.202739715576172
      ],
      [
        "掲載",
        -9.203185081481934
      ],
      [
        "配信",
        -9.203706741333008
      ],
      [
        "ch",
        -9.204886436462402
      ],
      [
        "私",
        -9.205656051635742
      ],
      [
        "同様",
        -9.205978393554688
      ],
      [
        "00",
        -9.206759452819824
      ],
      [
        "黒",
        -9.210277557373049
      ],
      [
        "エン",
        -9.210739135742188
      ],
      [
        "に伴い",
        -9.211103439331056
      ],
      [
        "頃",
        -9.21145248413086
      ],
      [
        "経営",
        -9.212457656860352
      ],
      [
        "六",
        -9.213227272033691
      ],
      [
        "ライブ",
        -9.214351654052734
      ],
      [
        "考え",
        -9.214996337890623
      ],
      [
        "高い",
        -9.215435981750488
      ],
      [
        "インド",
        -9.215761184692385
      ],
      [
        "オー",
        -9.216270446777344
      ],
      [
        "忠",
        -9.217330932617188
      ],
      [
        "波",
        -9.218932151794434
      ],
      [
        "程度",
        -9.22017765045166
      ],
      [
        "人気",
        -9.220584869384766
      ],
      [
        "夜",
        -9.2207612991333
      ],
      [
        "1996",
        -9.221036911010742
      ],
      [
        "豊",
        -9.221177101135254
      ],
      [
        "千",
        -9.22213363647461
      ],
      [
        "シン",
        -9.223715782165527
      ],
      [
        "リング",
        -9.224126815795898
      ],
      [
        "よ",
        -9.224374771118164
      ],
      [
        "過去",
        -9.226332664489746
      ],
      [
        "沢",
        -9.226773262023926
      ],
      [
        "整備",
        -9.227373123168944
      ],
      [
        "1997",
        -9.228182792663574
      ],
      [
        "アニメ",
        -9.228439331054688
      ],
      [
        "編成",
        -9.228513717651367
      ],
      [
        "{",
        -9.229082107543944
      ],
      [
        "航空",
        -9.23053741455078
      ],
      [
        "決勝",
        -9.230583190917969
      ],
      [
        "総合",
        -9.231368064880373
      ],
      [
        "1970",
        -9.23262882232666
      ],
      [
        "専門",
        -9.23708724975586
      ],
      [
        "co",
        -9.239562034606934
      ],
      [
        "銀行",
        -9.240135192871094
      ],
      [
        "物語",
        -9.240804672241213
      ],
      [
        "助",
        -9.241209983825684
      ],
      [
        "業",
        -9.242363929748535
      ],
      [
        "ヴァ",
        -9.242804527282717
      ],
      [
        "空",
        -9.24305248260498
      ],
      [
        "南部",
        -9.245418548583984
      ],
      [
        "持って",
        -9.245911598205566
      ],
      [
        "自由",
        -9.247550964355469
      ],
      [
        "超",
        -9.249069213867188
      ],
      [
        "女優",
        -9.252342224121094
      ],
      [
        "値",
        -9.253096580505373
      ],
      [
        "産業",
        -9.254484176635742
      ],
      [
        "作曲",
        -9.25559425354004
      ],
      [
        "守",
        -9.257189750671388
      ],
      [
        "しまう",
        -9.257715225219728
      ],
      [
        "45",
        -9.260398864746094
      ],
      [
        "ドラマ",
        -9.260713577270508
      ],
      [
        "制度",
        -9.261929512023926
      ],
      [
        "ed",
        -9.262880325317385
      ],
      [
        "に関",
        -9.264179229736328
      ],
      [
        "病院",
        -9.26449203491211
      ],
      [
        "アイ",
        -9.264860153198242
      ],
      [
        "1995",
        -9.26734447479248
      ],
      [
        "登録",
        -9.267715454101562
      ],
      [
        "最も",
        -9.267849922180176
      ],
      [
        "港",
        -9.268485069274902
      ],
      [
        "時期",
        -9.270181655883787
      ],
      [
        "種類",
        -9.27090072631836
      ],
      [
        "大統領",
        -9.270954132080078
      ],
      [
        "区間",
        -9.27129077911377
      ],
      [
        "当",
        -9.27180290222168
      ],
      [
        "発行",
        -9.272332191467283
      ],
      [
        "パリ",
        -9.272409439086914
      ],
      [
        "スペイン",
        -9.27619743347168
      ],
      [
        "ar",
        -9.27629280090332
      ],
      [
        "st",
        -9.27661418914795
      ],
      [
        "赤",
        -9.27822971343994
      ],
      [
        "七",
        -9.278696060180664
      ],
      [
        "ものが",
        -9.281930923461914
      ],
      [
        "いずれ",
        -9.282581329345703
      ],
      [
        "利",
        -9.282995223999023
      ],
      [
        "主張",
        -9.284262657165527
      ],
      [
        "1992",
        -9.28512477874756
      ],
      [
        "“",
        -9.287636756896973
      ],
      [
        "レン",
        -9.289223670959473
      ],
      [
        "息子",
        -9.289490699768066
      ],
      [
        "職",
        -9.2901029586792
      ],
      [
        "新しい",
        -9.290300369262695
      ],
      [
        "1994",
        -9.290913581848145
      ],
      [
        "工場",
        -9.291569709777832
      ],
      [
        "記",
        -9.29241180419922
      ],
      [
        "言語",
        -9.292593002319336
      ],
      [
        "言葉",
        -9.292764663696287
      ],
      [
        "運用",
        -9.293201446533203
      ],
      [
        "ホーム",
        -9.29321575164795
      ],
      [
        "食",
        -9.294333457946776
      ],
      [
        "師",
        -9.295071601867676
      ],
      [
        "敵",
        -9.295248985290527
      ],
      [
        "タン",
        -9.296082496643066
      ],
      [
        "na",
        -9.298462867736816
      ],
      [
        "取得",
        -9.299765586853027
      ],
      [
        "自ら",
        -9.30046558380127
      ],
      [
        "自動車",
        -9.301081657409668
      ],
      [
        "ロン",
        -9.301230430603027
      ],
      [
        "によ",
        -9.30199146270752
      ],
      [
        "確認",
        -9.30239486694336
      ],
      [
        "民",
        -9.302528381347656
      ],
      [
        "はじめ",
        -9.303457260131836
      ],
      [
        "48",
        -9.303647994995115
      ],
      [
        "スーパー",
        -9.30414581298828
      ],
      [
        "土",
        -9.305708885192873
      ],
      [
        "章",
        -9.306633949279783
      ],
      [
        "公式",
        -9.306737899780272
      ],
      [
        "記念",
        -9.30678939819336
      ],
      [
        "周辺",
        -9.308804512023926
      ],
      [
        "ご",
        -9.30960464477539
      ],
      [
        "対戦",
        -9.31124496459961
      ],
      [
        "ko",
        -9.311927795410156
      ],
      [
        "角",
        -9.31202220916748
      ],
      [
        "発展",
        -9.31238079071045
      ],
      [
        "ic",
        -9.313031196594238
      ],
      [
        "入",
        -9.31488800048828
      ],
      [
        "現代",
        -9.315255165100098
      ],
      [
        "フィ",
        -9.316028594970703
      ],
      [
        "ing",
        -9.316268920898438
      ],
      [
        "大きな",
        -9.316431999206545
      ],
      [
        "移動",
        -9.316563606262209
      ],
      [
        "ヌ",
        -9.317692756652832
      ],
      [
        "撮影",
        -9.3179349899292
      ],
      [
        "90",
        -9.317948341369627
      ],
      [
        "海軍",
        -9.318410873413086
      ],
      [
        "」、「",
        -9.320942878723145
      ],
      [
        "試験",
        -9.321166038513184
      ],
      [
        "出来",
        -9.321783065795898
      ],
      [
        "サー",
        -9.32294464111328
      ],
      [
        "ma",
        -9.327478408813477
      ],
      [
        "見られる",
        -9.327593803405762
      ],
      [
        "たい",
        -9.328194618225098
      ],
      [
        "はその",
        -9.32859230041504
      ],
      [
        "保",
        -9.329634666442873
      ],
      [
        "製品",
        -9.330161094665527
      ],
      [
        "演奏",
        -9.330453872680664
      ],
      [
        "層",
        -9.33111572265625
      ],
      [
        "路",
        -9.331278800964355
      ],
      [
        "社長",
        -9.33430290222168
      ],
      [
        "記述",
        -9.335784912109377
      ],
      [
        "弟",
        -9.337437629699709
      ],
      [
        "ビー",
        -9.33819580078125
      ],
      [
        "メートル",
        -9.339876174926758
      ],
      [
        "秒",
        -9.340133666992188
      ],
      [
        "都",
        -9.340670585632324
      ],
      [
        "科学",
        -9.3407621383667
      ],
      [
        "交通",
        -9.341306686401367
      ],
      [
        "人々",
        -9.34182357788086
      ],
      [
        "1993",
        -9.344151496887209
      ],
      [
        "蔵",
        -9.345210075378418
      ],
      [
        "マル",
        -9.345218658447266
      ],
      [
        "it",
        -9.34635066986084
      ],
      [
        "会長",
        -9.346760749816896
      ],
      [
        "*",
        -9.3475980758667
      ],
      [
        "器",
        -9.348016738891602
      ],
      [
        "displaystyle",
        -9.349210739135742
      ],
      [
        "堂",
        -9.349538803100586
      ],
      [
        "戦闘",
        -9.352161407470703
      ],
      [
        "オブ",
        -9.35236358642578
      ],
      [
        "為",
        -9.352632522583008
      ],
      [
        "艦",
        -9.35375690460205
      ],
      [
        "示す",
        -9.355072975158691
      ],
      [
        "階",
        -9.355215072631836
      ],
      [
        "バン",
        -9.35581111907959
      ],
      [
        "姿",
        -9.35582447052002
      ],
      [
        "紹介",
        -9.357074737548828
      ],
      [
        "あたる",
        -9.357131004333496
      ],
      [
        "le",
        -9.357236862182615
      ],
      [
        "半",
        -9.357881546020508
      ],
      [
        "秀",
        -9.359731674194336
      ],
      [
        "率",
        -9.359907150268556
      ],
      [
        "デン",
        -9.361300468444824
      ],
      [
        "準",
        -9.361798286437988
      ],
      [
        "ガン",
        -9.36201286315918
      ],
      [
        "近く",
        -9.362287521362305
      ],
      [
        "th",
        -9.362747192382812
      ],
      [
        "ハイ",
        -9.362818717956545
      ],
      [
        "対する",
        -9.362902641296388
      ],
      [
        "右",
        -9.36417007446289
      ],
      [
        "知られる",
        -9.364194869995115
      ],
      [
        "1991",
        -9.36504077911377
      ],
      [
        "台湾",
        -9.36521339416504
      ],
      [
        "個人",
        -9.365328788757324
      ],
      [
        "来",
        -9.366595268249512
      ],
      [
        "順",
        -9.367169380187988
      ],
      [
        "効果",
        -9.367481231689451
      ],
      [
        "非常に",
        -9.367938995361328
      ],
      [
        "ブル",
        -9.368504524230955
      ],
      [
        "追加",
        -9.369996070861816
      ],
      [
        "状況",
        -9.370306968688965
      ],
      [
        "nhk",
        -9.370635032653809
      ],
      [
        "能力",
        -9.371671676635742
      ],
      [
        "陸軍",
        -9.371696472167969
      ],
      [
        "大きく",
        -9.372743606567385
      ],
      [
        "幸",
        -9.373355865478516
      ],
      [
        "龍",
        -9.373946189880373
      ],
      [
        "付近",
        -9.376091003417969
      ],
      [
        "32",
        -9.376596450805664
      ],
      [
        "be",
        -9.377551078796388
      ],
      [
        "33",
        -9.378525733947754
      ],
      [
        "と呼ばれ",
        -9.378667831420898
      ],
      [
        "間に",
        -9.381110191345217
      ],
      [
        ".2",
        -9.38165283203125
      ],
      [
        "諸",
        -9.382747650146484
      ],
      [
        "鉄",
        -9.383073806762695
      ],
      [
        "カナダ",
        -9.383118629455566
      ],
      [
        "機関",
        -9.383426666259766
      ],
      [
        "坂",
        -9.384188652038574
      ],
      [
        "}",
        -9.38469696044922
      ],
      [
        "作戦",
        -9.386059761047363
      ],
      [
        "クラス",
        -9.38612937927246
      ],
      [
        "作家",
        -9.387940406799316
      ],
      [
        "玉",
        -9.388589859008787
      ],
      [
        "スタジオ",
        -9.38955020904541
      ],
      [
        "左",
        -9.390700340270996
      ],
      [
        "兼",
        -9.39102840423584
      ],
      [
        "パン",
        -9.39107894897461
      ],
      [
        "枠",
        -9.391091346740724
      ],
      [
        "経験",
        -9.391242027282717
      ],
      [
        "火",
        -9.391799926757812
      ],
      [
        "ta",
        -9.391807556152344
      ],
      [
        "成立",
        -9.39182949066162
      ],
      [
        "同じく",
        -9.3922700881958
      ],
      [
        "地球",
        -9.392312049865724
      ],
      [
        "ガー",
        -9.392618179321287
      ],
      [
        "以後",
        -9.392824172973633
      ],
      [
        "差",
        -9.39321231842041
      ],
      [
        "期間",
        -9.394498825073242
      ],
      [
        "図",
        -9.395008087158203
      ],
      [
        "合併",
        -9.395342826843262
      ],
      [
        "本社",
        -9.395769119262695
      ],
      [
        "らは",
        -9.395801544189451
      ],
      [
        "せず",
        -9.396305084228516
      ],
      [
        "漫画",
        -9.399076461791992
      ],
      [
        "司",
        -9.399086952209473
      ],
      [
        "ランド",
        -9.399473190307615
      ],
      [
        "横",
        -9.399514198303224
      ],
      [
        "共同",
        -9.401005744934082
      ],
      [
        "アジア",
        -9.401205062866213
      ],
      [
        "引退",
        -9.40134048461914
      ],
      [
        "北部",
        -9.402005195617676
      ],
      [
        "翌年",
        -9.402474403381348
      ],
      [
        "彦",
        -9.403006553649902
      ],
      [
        "命",
        -9.404179573059082
      ],
      [
        "1989",
        -9.40555477142334
      ],
      [
        "永",
        -9.405790328979492
      ],
      [
        "連",
        -9.405932426452637
      ],
      [
        "方式",
        -9.405940055847168
      ],
      [
        "工業",
        -9.406549453735352
      ],
      [
        "街",
        -9.408340454101562
      ],
      [
        "そう",
        -9.410592079162598
      ],
      [
        "200",
        -9.410663604736328
      ],
      [
        "ロンドン",
        -9.411172866821287
      ],
      [
        "の大",
        -9.41272258758545
      ],
      [
        "でき",
        -9.414135932922363
      ],
      [
        "紙",
        -9.415793418884276
      ],
      [
        "であ",
        -9.416167259216309
      ],
      [
        "条件",
        -9.416306495666504
      ],
      [
        "誌",
        -9.416865348815918
      ],
      [
        "入り",
        -9.416936874389648
      ],
      [
        "表示",
        -9.41950511932373
      ],
      [
        "分野",
        -9.420143127441406
      ],
      [
        "員",
        -9.42054557800293
      ],
      [
        "学生",
        -9.420721054077148
      ],
      [
        "細胞",
        -9.420953750610352
      ],
      [
        "連載",
        -9.42141819000244
      ],
      [
        ".0",
        -9.42190647125244
      ],
      [
        "me",
        -9.42402172088623
      ],
      [
        "1,",
        -9.424028396606444
      ],
      [
        "団",
        -9.42473602294922
      ],
      [
        "38",
        -9.42586898803711
      ],
      [
        "行われる",
        -9.426321029663086
      ],
      [
        "反",
        -9.426400184631348
      ],
      [
        "ひとつ",
        -9.428064346313477
      ],
      [
        "草",
        -9.428240776062012
      ],
      [
        "es",
        -9.428374290466309
      ],
      [
        "とって",
        -9.428618431091309
      ],
      [
        "したため",
        -9.429055213928224
      ],
      [
        "考えられ",
        -9.429140090942385
      ],
      [
        "ごと",
        -9.429156303405762
      ],
      [
        "務める",
        -9.429218292236328
      ],
      [
        "日本語",
        -9.429603576660156
      ],
      [
        "1960",
        -9.430414199829102
      ],
      [
        "36",
        -9.430889129638672
      ],
      [
        "ドル",
        -9.430986404418944
      ],
      [
        "弾",
        -9.431732177734377
      ],
      [
        "ニューヨーク",
        -9.432306289672852
      ],
      [
        "成績",
        -9.432368278503418
      ],
      [
        "定義",
        -9.43251895904541
      ],
      [
        "ロック",
        -9.432868957519531
      ],
      [
        "mo",
        -9.434101104736328
      ],
      [
        "研究所",
        -9.43415641784668
      ],
      [
        "逆",
        -9.43417263031006
      ],
      [
        "隆",
        -9.434194564819336
      ],
      [
        "ライン",
        -9.434252738952637
      ],
      [
        "フル",
        -9.434520721435549
      ],
      [
        "sa",
        -9.434648513793944
      ],
      [
        "末",
        -9.436134338378906
      ],
      [
        "陽",
        -9.436230659484863
      ],
      [
        "最高",
        -9.43624210357666
      ],
      [
        "拡大",
        -9.436904907226562
      ],
      [
        "go",
        -9.438608169555664
      ],
      [
        "チャ",
        -9.438750267028809
      ],
      [
        "時点",
        -9.43882942199707
      ],
      [
        "唯一",
        -9.439811706542969
      ],
      [
        "復帰",
        -9.440305709838867
      ],
      [
        "バル",
        -9.440407752990724
      ],
      [
        "もって",
        -9.441865921020508
      ],
      [
        "界",
        -9.442261695861816
      ],
      [
        "集",
        -9.442584037780762
      ],
      [
        "板",
        -9.443050384521484
      ],
      [
        "秋",
        -9.443098068237305
      ],
      [
        "本名",
        -9.443358421325684
      ],
      [
        "特定",
        -9.445441246032717
      ],
      [
        "熱",
        -9.445648193359377
      ],
      [
        "け",
        -9.44655990600586
      ],
      [
        "同様に",
        -9.447402000427246
      ],
      [
        "仕事",
        -9.447665214538574
      ],
      [
        "いくつ",
        -9.44880485534668
      ],
      [
        "警察",
        -9.449581146240234
      ],
      [
        "34",
        -9.450559616088867
      ],
      [
        "1988",
        -9.45120906829834
      ],
      [
        "系統",
        -9.45268726348877
      ],
      [
        "教",
        -9.45328426361084
      ],
      [
        "の下",
        -9.45341682434082
      ],
      [
        "家族",
        -9.454257011413574
      ],
      [
        "プロジェクト",
        -9.455105781555176
      ],
      [
        "会議",
        -9.455191612243652
      ],
      [
        "拠点",
        -9.455971717834473
      ],
      [
        "リア",
        -9.456524848937988
      ],
      [
        "計",
        -9.456695556640623
      ],
      [
        "青",
        -9.456965446472168
      ],
      [
        "37",
        -9.457403182983398
      ],
      [
        "装置",
        -9.45778465270996
      ],
      [
        "崎",
        -9.458402633666992
      ],
      [
        "主義",
        -9.4588041305542
      ],
      [
        "らず",
        -9.459356307983398
      ],
      [
        "郷",
        -9.459372520446776
      ],
      [
        "雑誌",
        -9.459464073181152
      ],
      [
        "しか",
        -9.459489822387695
      ],
      [
        "入る",
        -9.46023941040039
      ],
      [
        "知られ",
        -9.460373878479004
      ],
      [
        "モン",
        -9.461024284362791
      ],
      [
        "行動",
        -9.461495399475098
      ],
      [
        "薬",
        -9.463255882263184
      ],
      [
        "動物",
        -9.463669776916504
      ],
      [
        "ひ",
        -9.46499252319336
      ],
      [
        "地元",
        -9.465023040771484
      ],
      [
        "※",
        -9.46504020690918
      ],
      [
        "プレー",
        -9.469045639038086
      ],
      [
        "知",
        -9.469085693359377
      ],
      [
        "is",
        -9.470324516296388
      ],
      [
        "空港",
        -9.47093391418457
      ],
      [
        "ジェ",
        -9.472371101379396
      ],
      [
        "記載",
        -9.4725980758667
      ],
      [
        "相手",
        -9.474348068237305
      ],
      [
        "フリー",
        -9.474616050720217
      ],
      [
        "兄",
        -9.475359916687012
      ],
      [
        "事故",
        -9.47600555419922
      ],
      [
        "植物",
        -9.476597785949709
      ],
      [
        "店舗",
        -9.477256774902344
      ],
      [
        "トゥ",
        -9.47751522064209
      ],
      [
        "ii",
        -9.477517127990724
      ],
      [
        "加入",
        -9.47976779937744
      ],
      [
        "公演",
        -9.479815483093262
      ],
      [
        "仁",
        -9.480216979980469
      ],
      [
        "省",
        -9.480927467346191
      ],
      [
        "パー",
        -9.481179237365724
      ],
      [
        "写真",
        -9.48177719116211
      ],
      [
        "統合",
        -9.482173919677734
      ],
      [
        "藤",
        -9.482629776000977
      ],
      [
        "例えば",
        -9.483661651611328
      ],
      [
        "方面",
        -9.4837007522583
      ],
      [
        "an",
        -9.48465061187744
      ],
      [
        "市場",
        -9.486937522888184
      ],
      [
        "編",
        -9.487544059753418
      ],
      [
        "せん",
        -9.488534927368164
      ],
      [
        "園",
        -9.48885726928711
      ],
      [
        "オリンピック",
        -9.490057945251465
      ],
      [
        "55",
        -9.490833282470703
      ],
      [
        "ヘ",
        -9.490907669067385
      ],
      [
        "自然",
        -9.490986824035645
      ],
      [
        "開業",
        -9.491008758544922
      ],
      [
        "kg",
        -9.49112319946289
      ],
      [
        "mi",
        -9.491462707519531
      ],
      [
        "1987",
        -9.491888046264648
      ],
      [
        "コー",
        -9.492207527160645
      ],
      [
        "オーストラリア",
        -9.492393493652344
      ],
      [
        "ホール",
        -9.492408752441406
      ],
      [
        "歌手",
        -9.494428634643556
      ],
      [
        "劇場",
        -9.494811058044434
      ],
      [
        "弘",
        -9.494985580444336
      ],
      [
        "批判",
        -9.495708465576172
      ],
      [
        "指導",
        -9.496131896972656
      ],
      [
        "ん",
        -9.496230125427246
      ],
      [
        "国道",
        -9.497127532958984
      ],
      [
        "まった",
        -9.497297286987305
      ],
      [
        "通信",
        -9.497766494750977
      ],
      [
        "低",
        -9.498786926269531
      ],
      [
        "メーカー",
        -9.49956512451172
      ],
      [
        "ジュ",
        -9.499857902526855
      ],
      [
        "政策",
        -9.500004768371582
      ],
      [
        "オリジナル",
        -9.504018783569336
      ],
      [
        "するように",
        -9.504738807678224
      ],
      [
        "意",
        -9.504898071289062
      ],
      [
        "同社",
        -9.50544261932373
      ],
      [
        "伝",
        -9.506075859069824
      ],
      [
        "帯",
        -9.5068941116333
      ],
      [
        "–",
        -9.508188247680664
      ],
      [
        "建築",
        -9.50832176208496
      ],
      [
        "電",
        -9.509212493896484
      ],
      [
        "天皇",
        -9.50995635986328
      ],
      [
        "on",
        -9.510087013244627
      ],
      [
        "ならない",
        -9.51031494140625
      ],
      [
        "ルー",
        -9.510642051696776
      ],
      [
        "富",
        -9.510858535766602
      ],
      [
        "宇宙",
        -9.512389183044434
      ],
      [
        "樹",
        -9.51282787322998
      ],
      [
        "運転",
        -9.512877464294434
      ],
      [
        "香",
        -9.516684532165527
      ],
      [
        "ほぼ",
        -9.516849517822266
      ],
      [
        "河",
        -9.51747989654541
      ],
      [
        "連続",
        -9.51772689819336
      ],
      [
        "ニュー",
        -9.517809867858888
      ],
      [
        "報告",
        -9.518857955932615
      ],
      [
        "流れ",
        -9.51918888092041
      ],
      [
        ".1",
        -9.519549369812012
      ],
      [
        "映像",
        -9.521547317504885
      ],
      [
        "貢献",
        -9.522476196289062
      ],
      [
        "紀",
        -9.522947311401367
      ],
      [
        "500",
        -9.523197174072266
      ],
      [
        "王国",
        -9.52333164215088
      ],
      [
        "法律",
        -9.523367881774902
      ],
      [
        "理論",
        -9.523947715759276
      ],
      [
        "介",
        -9.524372100830078
      ],
      [
        "【",
        -9.524484634399414
      ],
      [
        "】",
        -9.52450466156006
      ],
      [
        "se",
        -9.524516105651855
      ],
      [
        "至る",
        -9.525057792663574
      ],
      [
        "夢",
        -9.526273727416992
      ],
      [
        "通称",
        -9.526490211486816
      ],
      [
        "39",
        -9.529253005981444
      ],
      [
        "枚目",
        -9.529378890991213
      ],
      [
        "1986",
        -9.530838012695312
      ],
      [
        "米国",
        -9.5313081741333
      ],
      [
        "受ける",
        -9.531333923339844
      ],
      [
        "ね",
        -9.53158950805664
      ],
      [
        "子供",
        -9.531725883483888
      ],
      [
        "説明",
        -9.533087730407717
      ],
      [
        "便",
        -9.53329086303711
      ],
      [
        "建物",
        -9.533462524414062
      ],
      [
        "増加",
        -9.533502578735352
      ],
      [
        "ka",
        -9.533623695373535
      ],
      [
        "学園",
        -9.533827781677246
      ],
      [
        "and",
        -9.5348539352417
      ],
      [
        "工事",
        -9.536284446716309
      ],
      [
        "付",
        -9.536285400390623
      ],
      [
        "指す",
        -9.536481857299805
      ],
      [
        "ぎ",
        -9.537361145019531
      ],
      [
        "サッカー",
        -9.538509368896484
      ],
      [
        "岡",
        -9.539105415344238
      ],
      [
        "病",
        -9.540661811828612
      ],
      [
        "ガス",
        -9.540825843811035
      ],
      [
        "ne",
        -9.54189395904541
      ],
      [
        "ネット",
        -9.543232917785645
      ],
      [
        "感",
        -9.545063972473145
      ],
      [
        "市内",
        -9.546232223510742
      ],
      [
        "輸送",
        -9.546339988708496
      ],
      [
        "敗",
        -9.54716968536377
      ],
      [
        "用い",
        -9.547243118286133
      ],
      [
        "池",
        -9.548483848571776
      ],
      [
        "議会",
        -9.55014705657959
      ],
      [
        "1985",
        -9.551005363464355
      ],
      [
        "置く",
        -9.551021575927734
      ],
      [
        "協力",
        -9.551247596740724
      ],
      [
        "ニュース",
        -9.551471710205078
      ],
      [
        "ベース",
        -9.551621437072754
      ],
      [
        "la",
        -9.55180835723877
      ],
      [
        "tv",
        -9.55210304260254
      ],
      [
        "枚",
        -9.552184104919434
      ],
      [
        "ジー",
        -9.553768157958984
      ],
      [
        ".3",
        -9.554205894470217
      ],
      [
        "ダン",
        -9.554854393005373
      ],
      [
        "ローマ",
        -9.555612564086914
      ],
      [
        "国民",
        -9.555688858032228
      ],
      [
        "進出",
        -9.55635929107666
      ],
      [
        "ライ",
        -9.556516647338867
      ],
      [
        "規模",
        -9.55655002593994
      ],
      [
        "楽",
        -9.556588172912598
      ],
      [
        "対し",
        -9.557841300964355
      ],
      [
        "引き",
        -9.559000968933104
      ],
      [
        "1983",
        -9.559212684631348
      ],
      [
        "トップ",
        -9.55922031402588
      ],
      [
        "よく",
        -9.560622215270996
      ],
      [
        "ような",
        -9.561001777648926
      ],
      [
        "伝統",
        -9.561113357543944
      ],
      [
        "da",
        -9.561952590942385
      ],
      [
        "祭",
        -9.56329345703125
      ],
      [
        "源",
        -9.563861846923828
      ],
      [
        "毛",
        -9.565542221069336
      ],
      [
        "九州",
        -9.56554889678955
      ],
      [
        "』『",
        -9.567028045654297
      ],
      [
        "規定",
        -9.567306518554688
      ],
      [
        "主人公",
        -9.567469596862791
      ],
      [
        "ホテル",
        -9.56898021697998
      ],
      [
        "pa",
        -9.569042205810549
      ],
      [
        "鳥",
        -9.570066452026367
      ],
      [
        "保護",
        -9.571486473083496
      ],
      [
        "わ",
        -9.572264671325684
      ],
      [
        "戦後",
        -9.573190689086914
      ],
      [
        "可能で",
        -9.573713302612305
      ],
      [
        "マイ",
        -9.575095176696776
      ],
      [
        "浦",
        -9.57574462890625
      ],
      [
        "質",
        -9.57588005065918
      ],
      [
        "キン",
        -9.576674461364746
      ],
      [
        "満",
        -9.577174186706545
      ],
      [
        "惑星",
        -9.57737636566162
      ],
      [
        ")-",
        -9.57813835144043
      ],
      [
        "フェ",
        -9.57863998413086
      ],
      [
        "主演",
        -9.57961082458496
      ],
      [
        "ふ",
        -9.580446243286133
      ],
      [
        "ッ",
        -9.580588340759276
      ],
      [
        "瀬",
        -9.580967903137209
      ],
      [
        "サイト",
        -9.582088470458984
      ],
      [
        "従来",
        -9.582464218139648
      ],
      [
        "合",
        -9.584736824035645
      ],
      [
        "佐",
        -9.584946632385254
      ],
      [
        "1984",
        -9.5853271484375
      ],
      [
        "配置",
        -9.586176872253418
      ],
      [
        "産",
        -9.588408470153809
      ],
      [
        "フォン",
        -9.589106559753418
      ],
      [
        "共和国",
        -9.590173721313477
      ],
      [
        "ベスト",
        -9.592522621154783
      ],
      [
        "方向",
        -9.593152046203612
      ],
      [
        "土地",
        -9.5931978225708
      ],
      [
        "ぶ",
        -9.59450340270996
      ],
      [
        "福",
        -9.595864295959473
      ],
      [
        "メディア",
        -9.597124099731444
      ],
      [
        "デル",
        -9.59743309020996
      ],
      [
        "タイプ",
        -9.597747802734377
      ],
      [
        "os",
        -9.597881317138672
      ],
      [
        "46",
        -9.59921169281006
      ],
      [
        "せ",
        -9.59925651550293
      ],
      [
        "作成",
        -9.599312782287598
      ],
      [
        "続い",
        -9.600860595703123
      ],
      [
        "44",
        -9.602160453796388
      ],
      [
        "不明",
        -9.60247039794922
      ],
      [
        "横浜",
        -9.602564811706545
      ],
      [
        "言う",
        -9.60367488861084
      ],
      [
        "ブランド",
        -9.605040550231934
      ],
      [
        "原作",
        -9.605324745178224
      ],
      [
        "行為",
        -9.605463981628418
      ],
      [
        "属する",
        -9.605738639831545
      ],
      [
        "ga",
        -9.60622501373291
      ],
      [
        "骨",
        -9.606300354003906
      ],
      [
        "つつ",
        -9.60634994506836
      ],
      [
        "fa",
        -9.606996536254885
      ],
      [
        "営業",
        -9.607535362243652
      ],
      [
        "直接",
        -9.60778522491455
      ],
      [
        "ハー",
        -9.608633041381836
      ],
      [
        "刊行",
        -9.609262466430664
      ],
      [
        "入学",
        -9.609722137451172
      ],
      [
        "海外",
        -9.610918045043944
      ],
      [
        "ミュージック",
        -9.611079216003418
      ],
      [
        "キー",
        -9.611384391784668
      ],
      [
        "万人",
        -9.6113920211792
      ],
      [
        "反応",
        -9.611449241638184
      ],
      [
        "創設",
        -9.613118171691896
      ],
      [
        "絵",
        -9.613231658935549
      ],
      [
        "料理",
        -9.613502502441406
      ],
      [
        "どう",
        -9.614407539367676
      ],
      [
        "ハン",
        -9.614429473876951
      ],
      [
        "専用",
        -9.61492156982422
      ],
      [
        "羽",
        -9.615222930908203
      ],
      [
        "くる",
        -9.615328788757324
      ],
      [
        "面積",
        -9.616145133972168
      ],
      [
        "公立",
        -9.616226196289062
      ],
      [
        "像",
        -9.616415023803713
      ],
      [
        "電気",
        -9.616880416870115
      ],
      [
        "魚",
        -9.617308616638184
      ],
      [
        "貴",
        -9.617319107055664
      ],
      [
        "塩",
        -9.61746883392334
      ],
      [
        "万円",
        -9.618712425231934
      ],
      [
        "チェ",
        -9.618882179260254
      ],
      [
        "ユ",
        -9.61889362335205
      ],
      [
        "近年",
        -9.620100021362305
      ],
      [
        "康",
        -9.62094783782959
      ],
      [
        "ページ",
        -9.62130641937256
      ],
      [
        "友",
        -9.623209953308104
      ],
      [
        "しよう",
        -9.623350143432615
      ],
      [
        "格",
        -9.623950004577637
      ],
      [
        "結ぶ",
        -9.624686241149902
      ],
      [
        "平均",
        -9.624944686889648
      ],
      [
        "原因",
        -9.62506866455078
      ],
      [
        "温泉",
        -9.625452995300291
      ],
      [
        "ポイント",
        -9.625462532043455
      ],
      [
        "通じ",
        -9.626230239868164
      ],
      [
        "名古屋",
        -9.626721382141112
      ],
      [
        "悪",
        -9.62677001953125
      ],
      [
        "自",
        -9.62685203552246
      ],
      [
        "文学",
        -9.627853393554688
      ],
      [
        "軍事",
        -9.627857208251951
      ],
      [
        "限定",
        -9.62843132019043
      ],
      [
        "距離",
        -9.62881851196289
      ],
      [
        "竹",
        -9.629535675048828
      ],
      [
        "政権",
        -9.629612922668455
      ],
      [
        "ステージ",
        -9.629942893981934
      ],
      [
        "付け",
        -9.630331993103027
      ],
      [
        "孫",
        -9.63082790374756
      ],
      [
        "詩",
        -9.630836486816406
      ],
      [
        "跡",
        -9.630951881408691
      ],
      [
        "れ",
        -9.631814002990724
      ],
      [
        "電子",
        -9.63209629058838
      ],
      [
        "的で",
        -9.632418632507324
      ],
      [
        "ca",
        -9.63327980041504
      ],
      [
        "条約",
        -9.633466720581056
      ],
      [
        "業務",
        -9.634255409240724
      ],
      [
        "新聞",
        -9.63437557220459
      ],
      [
        "装備",
        -9.634625434875488
      ],
      [
        "dvd",
        -9.635492324829102
      ],
      [
        "芸術",
        -9.636733055114746
      ],
      [
        "東京都",
        -9.637064933776855
      ],
      [
        "伊",
        -9.63818073272705
      ],
      [
        "テン",
        -9.638823509216309
      ],
      [
        "ge",
        -9.63948917388916
      ],
      [
        "呼ぶ",
        -9.639912605285645
      ],
      [
        "記事",
        -9.639917373657228
      ],
      [
        "as",
        -9.64022731781006
      ],
      [
        "せい",
        -9.641210556030272
      ],
      [
        "ツアー",
        -9.641425132751465
      ],
      [
        "雲",
        -9.64151096343994
      ],
      [
        "述べ",
        -9.641578674316406
      ],
      [
        "支持",
        -9.642179489135742
      ],
      [
        "かつ",
        -9.64357852935791
      ],
      [
        "浜",
        -9.644864082336426
      ],
      [
        "ha",
        -9.644878387451172
      ],
      [
        "得点",
        -9.644983291625977
      ],
      [
        "競技",
        -9.645249366760254
      ],
      [
        "ダム",
        -9.645262718200684
      ],
      [
        "ヨ",
        -9.645742416381836
      ],
      [
        "関",
        -9.646482467651367
      ],
      [
        "指摘",
        -9.648762702941896
      ],
      [
        "番号",
        -9.649755477905272
      ],
      [
        "なら",
        -9.649993896484377
      ],
      [
        "しょう",
        -9.650290489196776
      ],
      [
        "周",
        -9.650335311889648
      ],
      [
        "もう",
        -9.65230941772461
      ],
      [
        "接続",
        -9.652568817138672
      ],
      [
        "レー",
        -9.654141426086426
      ],
      [
        "エネルギー",
        -9.654519081115724
      ],
      [
        "ワン",
        -9.65459156036377
      ],
      [
        "指揮",
        -9.655029296875
      ],
      [
        "市民",
        -9.655065536499023
      ],
      [
        "オランダ",
        -9.6551513671875
      ],
      [
        "1978",
        -9.656147956848145
      ],
      [
        "ro",
        -9.656384468078612
      ],
      [
        "仏",
        -9.657962799072266
      ],
      [
        "si",
        -9.658177375793455
      ],
      [
        "集団",
        -9.65888500213623
      ],
      [
        "移転",
        -9.6592435836792
      ],
      [
        "誕生",
        -9.660752296447754
      ],
      [
        "昇格",
        -9.661378860473633
      ],
      [
        "間の",
        -9.66152286529541
      ],
      [
        "開",
        -9.66225528717041
      ],
      [
        "一種",
        -9.662808418273926
      ],
      [
        "かの",
        -9.664231300354004
      ],
      [
        "選手権",
        -9.664262771606444
      ],
      [
        "紀元前",
        -9.665346145629885
      ],
      [
        "男子",
        -9.665966987609863
      ],
      [
        "予選",
        -9.666489601135254
      ],
      [
        "死亡",
        -9.66669464111328
      ],
      [
        "学者",
        -9.667417526245115
      ],
      [
        "歴任",
        -9.667683601379396
      ],
      [
        "シティ",
        -9.668274879455566
      ],
      [
        "少年",
        -9.668841361999512
      ],
      [
        "達成",
        -9.668867111206056
      ],
      [
        "統一",
        -9.669047355651855
      ],
      [
        "形態",
        -9.66994285583496
      ],
      [
        "セン",
        -9.670106887817385
      ],
      [
        "アンド",
        -9.670130729675291
      ],
      [
        "ba",
        -9.67033863067627
      ],
      [
        "1982",
        -9.670432090759276
      ],
      [
        "博",
        -9.67058563232422
      ],
      [
        "行政",
        -9.670636177062988
      ],
      [
        "実現",
        -9.670642852783203
      ],
      [
        "異",
        -9.670989990234377
      ],
      [
        "本部",
        -9.67105484008789
      ],
      [
        "at",
        -9.67128562927246
      ],
      [
        "単位",
        -9.674476623535156
      ],
      [
        "泉",
        -9.675273895263672
      ],
      [
        "スタ",
        -9.675545692443848
      ],
      [
        "レス",
        -9.676329612731934
      ],
      [
        "ワールド",
        -9.676420211791992
      ],
      [
        "興",
        -9.676469802856444
      ],
      [
        "42",
        -9.678075790405272
      ],
      [
        "ビデオ",
        -9.678223609924316
      ],
      [
        "ジャン",
        -9.678348541259766
      ],
      [
        "ドン",
        -9.678558349609377
      ],
      [
        "300",
        -9.678723335266112
      ],
      [
        "支配",
        -9.680219650268556
      ],
      [
        "続く",
        -9.680380821228027
      ],
      [
        "加",
        -9.68048858642578
      ],
      [
        "ドゥ",
        -9.681565284729004
      ],
      [
        "大型",
        -9.68221378326416
      ],
      [
        "コース",
        -9.682332992553713
      ],
      [
        "孝",
        -9.682635307312012
      ],
      [
        "輪",
        -9.682660102844238
      ],
      [
        "47",
        -9.683038711547852
      ],
      [
        "クス",
        -9.683521270751951
      ],
      [
        "購入",
        -9.683683395385742
      ],
      [
        "43",
        -9.683993339538574
      ],
      [
        "善",
        -9.684456825256348
      ],
      [
        "いなかった",
        -9.685494422912598
      ],
      [
        "派遣",
        -9.685813903808594
      ],
      [
        "野球",
        -9.685904502868652
      ],
      [
        "強",
        -9.687131881713867
      ],
      [
        "越",
        -9.687439918518066
      ],
      [
        "段",
        -9.687685012817385
      ],
      [
        "生まれた",
        -9.688921928405762
      ],
      [
        "カップ",
        -9.689090728759766
      ],
      [
        "十",
        -9.68952751159668
      ],
      [
        "好",
        -9.689990043640137
      ],
      [
        "一覧",
        -9.690230369567873
      ],
      [
        "レコード",
        -9.692505836486816
      ],
      [
        "1950",
        -9.693100929260254
      ],
      [
        "te",
        -9.693649291992188
      ],
      [
        "洋",
        -9.694175720214844
      ],
      [
        "基準",
        -9.694498062133787
      ],
      [
        "ノー",
        -9.69502067565918
      ],
      [
        "空間",
        -9.69532585144043
      ],
      [
        "昌",
        -9.69611358642578
      ],
      [
        "乱",
        -9.696632385253906
      ],
      [
        "減少",
        -9.697199821472168
      ],
      [
        "処理",
        -9.697750091552734
      ],
      [
        "実験",
        -9.69898796081543
      ],
      [
        "1972",
        -9.699651718139648
      ],
      [
        "京",
        -9.700364112854004
      ],
      [
        "オン",
        -9.700836181640623
      ],
      [
        "出す",
        -9.700860023498535
      ],
      [
        "李",
        -9.701753616333008
      ],
      [
        "雪",
        -9.70207405090332
      ],
      [
        "単",
        -9.702162742614746
      ],
      [
        ".6",
        -9.702314376831056
      ],
      [
        ".4",
        -9.703399658203123
      ],
      [
        "1981",
        -9.703608512878418
      ],
      [
        "gi",
        -9.703877449035645
      ],
      [
        "オープン",
        -9.703932762145996
      ],
      [
        "かん",
        -9.704354286193848
      ],
      [
        "トリ",
        -9.70442008972168
      ],
      [
        "要素",
        -9.704702377319336
      ],
      [
        "役割",
        -9.70497703552246
      ],
      [
        "セット",
        -9.705368041992188
      ],
      [
        "1979",
        -9.70665454864502
      ],
      [
        "余",
        -9.706838607788086
      ],
      [
        "代目",
        -9.708036422729492
      ],
      [
        "湾",
        -9.708386421203612
      ],
      [
        "違い",
        -9.709016799926758
      ],
      [
        "るように",
        -9.709805488586426
      ],
      [
        "新たな",
        -9.710999488830566
      ],
      [
        "宝",
        -9.711305618286133
      ],
      [
        "銀",
        -9.711358070373535
      ],
      [
        "華",
        -9.712142944335938
      ],
      [
        "縁",
        -9.7122802734375
      ],
      [
        "di",
        -9.712718963623049
      ],
      [
        "項",
        -9.71282196044922
      ],
      [
        "に加え",
        -9.71302318572998
      ],
      [
        "参戦",
        -9.713765144348145
      ],
      [
        "反対",
        -9.714078903198242
      ],
      [
        "帝国",
        -9.714502334594728
      ],
      [
        "略称",
        -9.71475315093994
      ],
      [
        "君",
        -9.71513843536377
      ],
      [
        "盤",
        -9.715234756469728
      ],
      [
        "〈",
        -9.715703010559082
      ],
      [
        "〉",
        -9.716153144836426
      ],
      [
        "ロス",
        -9.716398239135742
      ],
      [
        "́",
        -9.717537879943848
      ],
      [
        "それら",
        -9.717901229858398
      ],
      [
        "張",
        -9.719122886657717
      ],
      [
        "将軍",
        -9.719145774841309
      ],
      [
        "完全",
        -9.719792366027832
      ],
      [
        "隣接",
        -9.71992301940918
      ],
      [
        "選択",
        -9.721161842346191
      ],
      [
        "席",
        -9.721555709838867
      ],
      [
        "比",
        -9.721575736999512
      ],
      [
        "破壊",
        -9.721830368041992
      ],
      [
        "調",
        -9.722020149230955
      ],
      [
        "画家",
        -9.722163200378418
      ],
      [
        "喜",
        -9.722631454467772
      ],
      [
        "年ぶり",
        -9.723795890808104
      ],
      [
        "額",
        -9.723947525024414
      ],
      [
        "少ない",
        -9.724285125732422
      ],
      [
        "ː",
        -9.725561141967772
      ],
      [
        "管",
        -9.72656536102295
      ],
      [
        "con",
        -9.726617813110352
      ],
      [
        "相当",
        -9.72768783569336
      ],
      [
        "飛行",
        -9.727906227111816
      ],
      [
        "毎年",
        -9.72898292541504
      ],
      [
        "だい",
        -9.72998046875
      ],
      [
        "裏",
        -9.730544090270996
      ],
      [
        "酒",
        -9.731281280517578
      ],
      [
        "機構",
        -9.732747077941896
      ],
      [
        "バイ",
        -9.733362197875977
      ],
      [
        "らが",
        -9.735306739807127
      ],
      [
        "医療",
        -9.735555648803713
      ],
      [
        "タイム",
        -9.736117362976074
      ],
      [
        "1975",
        -9.73757266998291
      ],
      [
        "又",
        -9.738611221313477
      ],
      [
        "作業",
        -9.738861083984377
      ],
      [
        "高く",
        -9.739656448364258
      ],
      [
        "ヴ",
        -9.73978042602539
      ],
      [
        "観測",
        -9.741263389587402
      ],
      [
        "商品",
        -9.74133586883545
      ],
      [
        "プログラム",
        -9.741755485534668
      ],
      [
        "億",
        -9.741771697998049
      ],
      [
        "客",
        -9.74250030517578
      ],
      [
        "宗教",
        -9.742528915405272
      ],
      [
        "ti",
        -9.742856979370115
      ],
      [
        "事務所",
        -9.743184089660645
      ],
      [
        "生物",
        -9.743256568908691
      ],
      [
        "ウィリアム",
        -9.744099617004396
      ],
      [
        "ss",
        -9.744324684143066
      ],
      [
        "キング",
        -9.7453031539917
      ],
      [
        "フランス語",
        -9.746482849121094
      ],
      [
        "強い",
        -9.746597290039062
      ],
      [
        "首相",
        -9.746707916259766
      ],
      [
        "途中",
        -9.747122764587402
      ],
      [
        "可能な",
        -9.747638702392578
      ],
      [
        "ジョージ",
        -9.748201370239258
      ],
      [
        "高等",
        -9.7489013671875
      ],
      [
        "継承",
        -9.74891185760498
      ],
      [
        ".7",
        -9.74898624420166
      ],
      [
        "府",
        -9.749027252197266
      ],
      [
        "li",
        -9.749337196350098
      ],
      [
        "世の",
        -9.74970531463623
      ],
      [
        "テーマ",
        -9.75045680999756
      ],
      [
        "技",
        -9.752229690551758
      ],
      [
        "地名",
        -9.75242519378662
      ],
      [
        "標準",
        -9.75296401977539
      ],
      [
        "住民",
        -9.75350284576416
      ],
      [
        "維持",
        -9.755318641662598
      ],
      [
        "内閣",
        -9.755380630493164
      ],
      [
        "ザー",
        -9.756921768188477
      ],
      [
        "バック",
        -9.756978034973145
      ],
      [
        "姓",
        -9.757378578186035
      ],
      [
        "報道",
        -9.758177757263184
      ],
      [
        "×",
        -9.760058403015137
      ],
      [
        "球",
        -9.761253356933594
      ],
      [
        "ろ",
        -9.761816024780272
      ],
      [
        "勢力",
        -9.762331008911133
      ],
      [
        "栄",
        -9.763405799865724
      ],
      [
        "49",
        -9.764016151428224
      ],
      [
        "重要な",
        -9.764334678649902
      ],
      [
        "出し",
        -9.766839027404783
      ],
      [
        "年生",
        -9.767218589782717
      ],
      [
        "軌道",
        -9.7672700881958
      ],
      [
        "man",
        -9.76816463470459
      ],
      [
        "解散",
        -9.768951416015623
      ],
      [
        "レベル",
        -9.769064903259276
      ],
      [
        "軸",
        -9.769471168518066
      ],
      [
        "継続",
        -9.769619941711426
      ],
      [
        "幅",
        -9.76967430114746
      ],
      [
        "41",
        -9.76991081237793
      ],
      [
        "砲",
        -9.77019214630127
      ],
      [
        "理",
        -9.771526336669922
      ],
      [
        "メイン",
        -9.772000312805176
      ],
      [
        "在",
        -9.772095680236816
      ],
      [
        "マーク",
        -9.77216339111328
      ],
      [
        "宿",
        -9.772314071655272
      ],
      [
        "俊",
        -9.772686004638672
      ],
      [
        "一時",
        -9.772701263427734
      ],
      [
        "年頃",
        -9.77286148071289
      ],
      [
        "1945",
        -9.773237228393556
      ],
      [
        "トラ",
        -9.77324390411377
      ],
      [
        "頼",
        -9.77330207824707
      ],
      [
        "件",
        -9.773903846740724
      ],
      [
        "54",
        -9.774065017700195
      ],
      [
        "1973",
        -9.774197578430176
      ],
      [
        "1976",
        -9.774370193481444
      ],
      [
        "奥",
        -9.77493667602539
      ],
      [
        "主な",
        -9.774975776672363
      ],
      [
        "帝",
        -9.7755765914917
      ],
      [
        "旅",
        -9.775975227355955
      ],
      [
        "鈴木",
        -9.776387214660645
      ],
      [
        "筋",
        -9.77668285369873
      ],
      [
        "委員",
        -9.776766777038574
      ],
      [
        "表す",
        -9.777259826660156
      ],
      [
        "切り",
        -9.779014587402344
      ],
      [
        "犬",
        -9.779046058654783
      ],
      [
        "百",
        -9.779486656188965
      ],
      [
        "農業",
        -9.779534339904783
      ],
      [
        "防衛",
        -9.78016471862793
      ],
      [
        "ブラジル",
        -9.780956268310549
      ],
      [
        "造",
        -9.781021118164062
      ],
      [
        "付き",
        -9.781429290771484
      ],
      [
        ".8",
        -9.781513214111328
      ],
      [
        "トー",
        -9.781815528869627
      ],
      [
        "首",
        -9.782292366027832
      ],
      [
        "含め",
        -9.782374382019045
      ],
      [
        "イングランド",
        -9.782724380493164
      ],
      [
        "雨",
        -9.782852172851562
      ],
      [
        "スタート",
        -9.783215522766112
      ],
      [
        "年以降",
        -9.783541679382324
      ],
      [
        "号線",
        -9.783824920654297
      ],
      [
        "声優",
        -9.783862113952637
      ],
      [
        "ど",
        -9.784502983093262
      ],
      [
        "端",
        -9.784518241882324
      ],
      [
        "庁",
        -9.785626411437988
      ],
      [
        "代わり",
        -9.786506652832031
      ],
      [
        "ケン",
        -9.786782264709473
      ],
      [
        "終わ",
        -9.78679370880127
      ],
      [
        "ジン",
        -9.78759479522705
      ],
      [
        "メン",
        -9.787718772888184
      ],
      [
        "国立",
        -9.788762092590332
      ],
      [
        "ディー",
        -9.78904628753662
      ],
      [
        "ボー",
        -9.78923797607422
      ],
      [
        "割",
        -9.791401863098145
      ],
      [
        "体制",
        -9.791410446166992
      ],
      [
        "ティー",
        -9.791860580444336
      ],
      [
        "詳細",
        -9.791919708251951
      ],
      [
        "候補",
        -9.792057991027832
      ],
      [
        "段階",
        -9.792351722717283
      ],
      [
        "限り",
        -9.792364120483398
      ],
      [
        "独自",
        -9.792808532714844
      ],
      [
        "ウィ",
        -9.793216705322266
      ],
      [
        "1974",
        -9.793290138244627
      ],
      [
        "兄弟",
        -9.793466567993164
      ],
      [
        "広島",
        -9.793570518493652
      ],
      [
        "遠",
        -9.79386043548584
      ],
      [
        "向上",
        -9.793877601623535
      ],
      [
        "連邦",
        -9.79389476776123
      ],
      [
        "成長",
        -9.794255256652832
      ],
      [
        "仕様",
        -9.794469833374023
      ],
      [
        "使われ",
        -9.794647216796877
      ],
      [
        "新たに",
        -9.795096397399902
      ],
      [
        "ショー",
        -9.796180725097656
      ],
      [
        "常",
        -9.796445846557615
      ],
      [
        "ゴール",
        -9.797133445739746
      ],
      [
        "リオ",
        -9.797497749328612
      ],
      [
        "日本人",
        -9.797893524169922
      ],
      [
        "一郎",
        -9.798648834228516
      ],
      [
        "バージョン",
        -9.798757553100586
      ],
      [
        "首都",
        -9.799731254577637
      ],
      [
        "推進",
        -9.79975700378418
      ],
      [
        "父親",
        -9.79977035522461
      ],
      [
        "なか",
        -9.800116539001465
      ],
      [
        "共通",
        -9.800128936767578
      ],
      [
        "1971",
        -9.800189018249512
      ],
      [
        "べ",
        -9.800210952758787
      ],
      [
        "なけれ",
        -9.800895690917969
      ],
      [
        "深",
        -9.800990104675291
      ],
      [
        "居",
        -9.80104160308838
      ],
      [
        "58",
        -9.801677703857422
      ],
      [
        "...",
        -9.801714897155762
      ],
      [
        "制限",
        -9.801892280578612
      ],
      [
        "会員",
        -9.80253791809082
      ],
      [
        "もしくは",
        -9.80322551727295
      ],
      [
        "やま",
        -9.803452491760254
      ],
      [
        "貞",
        -9.80356216430664
      ],
      [
        "bo",
        -9.803683280944824
      ],
      [
        "コード",
        -9.80414581298828
      ],
      [
        "関東",
        -9.804437637329102
      ],
      [
        "1969",
        -9.804956436157228
      ],
      [
        "パーク",
        -9.806514739990234
      ],
      [
        "主催",
        -9.806622505187988
      ],
      [
        "月号",
        -9.806939125061035
      ],
      [
        "1968",
        -9.807369232177734
      ],
      [
        "列",
        -9.808011054992676
      ],
      [
        "丁目",
        -9.80841827392578
      ],
      [
        "ユニット",
        -9.808554649353027
      ],
      [
        "禁止",
        -9.808856010437012
      ],
      [
        "開設",
        -9.809219360351562
      ],
      [
        "直後",
        -9.809354782104492
      ],
      [
        "民族",
        -9.809470176696776
      ],
      [
        "連盟",
        -9.809520721435549
      ],
      [
        "ps",
        -9.809914588928224
      ],
      [
        "られ",
        -9.810185432434082
      ],
      [
        "ラテン語",
        -9.811004638671877
      ],
      [
        "障害",
        -9.811797142028809
      ],
      [
        "プレイ",
        -9.812034606933594
      ],
      [
        "切",
        -9.812573432922363
      ],
      [
        "伯",
        -9.813992500305176
      ],
      [
        "56",
        -9.814050674438477
      ],
      [
        "入って",
        -9.814406394958496
      ],
      [
        "がない",
        -9.814867973327637
      ],
      [
        "工",
        -9.815129280090332
      ],
      [
        "綱",
        -9.81606101989746
      ],
      [
        "コーナー",
        -9.816862106323242
      ],
      [
        "テル",
        -9.81783390045166
      ],
      [
        "有する",
        -9.817889213562012
      ],
      [
        "リスト",
        -9.817917823791504
      ],
      [
        "ランキング",
        -9.817922592163086
      ],
      [
        "認定",
        -9.818150520324709
      ],
      [
        "湯",
        -9.818602561950684
      ],
      [
        "国鉄",
        -9.819476127624512
      ],
      [
        "_{",
        -9.819918632507324
      ],
      [
        "日付",
        -9.820550918579102
      ],
      [
        "増",
        -9.820639610290527
      ],
      [
        "壁",
        -9.820685386657717
      ],
      [
        "令",
        -9.820908546447754
      ],
      [
        "1977",
        -9.821788787841797
      ],
      [
        "速度",
        -9.821847915649414
      ],
      [
        "少なく",
        -9.821918487548828
      ],
      [
        "65",
        -9.822134017944336
      ],
      [
        "ネットワーク",
        -9.823063850402832
      ],
      [
        "do",
        -9.823708534240724
      ],
      [
        "竜",
        -9.824078559875488
      ],
      [
        "領域",
        -9.824408531188965
      ],
      [
        "ポーランド",
        -9.824888229370115
      ],
      [
        "所有",
        -9.825135231018066
      ],
      [
        "博物館",
        -9.825244903564451
      ],
      [
        "交換",
        -9.826567649841309
      ],
      [
        "愛称",
        -9.826924324035645
      ],
      [
        "血",
        -9.827198028564451
      ],
      [
        "長男",
        -9.82723331451416
      ],
      [
        "ハウス",
        -9.827454566955566
      ],
      [
        "隻",
        -9.827777862548828
      ],
      [
        "若",
        -9.829025268554688
      ],
      [
        "倍",
        -9.829232215881348
      ],
      [
        "漢",
        -9.82931900024414
      ],
      [
        "最",
        -9.82955265045166
      ],
      [
        "投手",
        -9.829646110534668
      ],
      [
        "塔",
        -9.830159187316896
      ],
      [
        "実業家",
        -9.830185890197754
      ],
      [
        "でなく",
        -9.830511093139648
      ],
      [
        "カール",
        -9.831226348876951
      ],
      [
        "セル",
        -9.831864356994627
      ],
      [
        "オーストリア",
        -9.832460403442385
      ],
      [
        "自体",
        -9.832597732543944
      ],
      [
        "勤務",
        -9.832695960998535
      ],
      [
        "64",
        -9.833982467651367
      ],
      [
        "観光",
        -9.834185600280762
      ],
      [
        "経由",
        -9.834590911865234
      ],
      [
        "選",
        -9.835376739501951
      ],
      [
        "観",
        -9.835674285888672
      ],
      [
        "範囲",
        -9.835965156555176
      ],
      [
        "上記",
        -9.835984230041504
      ],
      [
        "書き",
        -9.83783721923828
      ],
      [
        "進学",
        -9.837998390197754
      ],
      [
        "得る",
        -9.838611602783203
      ],
      [
        "冬",
        -9.839204788208008
      ],
      [
        "任命",
        -9.84048080444336
      ],
      [
        "ke",
        -9.84052276611328
      ],
      [
        "複数形",
        -9.84056568145752
      ],
      [
        "きっかけ",
        -9.841353416442873
      ],
      [
        "ヴェ",
        -9.841673851013184
      ],
      [
        "景",
        -9.84174346923828
      ],
      [
        "発足",
        -9.842334747314451
      ],
      [
        "東部",
        -9.842342376708984
      ],
      [
        "図書館",
        -9.842632293701172
      ],
      [
        "罪",
        -9.844039916992188
      ],
      [
        "学会",
        -9.844172477722168
      ],
      [
        "ジョ",
        -9.84418773651123
      ],
      [
        "しばしば",
        -9.844666481018066
      ],
      [
        "案",
        -9.84488582611084
      ],
      [
        "中村",
        -9.84618854522705
      ],
      [
        "っ",
        -9.84620475769043
      ],
      [
        "デジタル",
        -9.846383094787598
      ],
      [
        "改称",
        -9.846482276916504
      ],
      [
        "内部",
        -9.846607208251951
      ],
      [
        "停止",
        -9.847325325012209
      ],
      [
        "入った",
        -9.847335815429688
      ],
      [
        "牛",
        -9.847474098205566
      ],
      [
        "革命",
        -9.848172187805176
      ],
      [
        "ストーリー",
        -9.84819507598877
      ],
      [
        "vi",
        -9.848440170288086
      ],
      [
        "顔",
        -9.849564552307127
      ],
      [
        "資料",
        -9.849628448486328
      ],
      [
        "盛",
        -9.849714279174805
      ],
      [
        "作曲家",
        -9.849843978881836
      ],
      [
        "です",
        -9.84995174407959
      ],
      [
        "保存",
        -9.850077629089355
      ],
      [
        "対策",
        -9.851651191711426
      ],
      [
        "恵",
        -9.851828575134276
      ],
      [
        "ダイ",
        -9.851849555969238
      ],
      [
        "長い",
        -9.851995468139648
      ],
      [
        "チャンネル",
        -9.852235794067385
      ],
      [
        "ad",
        -9.853199005126951
      ],
      [
        "同盟",
        -9.85465145111084
      ],
      [
        "所在",
        -9.85528564453125
      ],
      [
        "1964",
        -9.856874465942385
      ],
      [
        "び",
        -9.857418060302734
      ],
      [
        "西部",
        -9.8578462600708
      ],
      [
        "ベン",
        -9.85874080657959
      ],
      [
        "』、『",
        -9.85898494720459
      ],
      [
        "建",
        -9.859052658081056
      ],
      [
        "に行われた",
        -9.859206199645996
      ],
      [
        "命名",
        -9.85928726196289
      ],
      [
        "あたり",
        -9.860359191894531
      ],
      [
        "艦隊",
        -9.86071491241455
      ],
      [
        "75",
        -9.861639976501465
      ],
      [
        "描いた",
        -9.862070083618164
      ],
      [
        "込み",
        -9.862504005432127
      ],
      [
        "大規模",
        -9.86314868927002
      ],
      [
        "桜",
        -9.863283157348633
      ],
      [
        "メル",
        -9.863285064697266
      ],
      [
        "更新",
        -9.863368034362791
      ],
      [
        "コンピュータ",
        -9.86408233642578
      ],
      [
        "sc",
        -9.864435195922852
      ],
      [
        "pro",
        -9.86506175994873
      ],
      [
        "ly",
        -9.865583419799805
      ],
      [
        "シーン",
        -9.865757942199709
      ],
      [
        "核",
        -9.866573333740234
      ],
      [
        "身長",
        -9.866798400878906
      ],
      [
        "ミー",
        -9.867435455322266
      ],
      [
        "pc",
        -9.868057250976562
      ],
      [
        "ə",
        -9.868084907531738
      ],
      [
        "三郎",
        -9.868337631225586
      ],
      [
        "連合",
        -9.868834495544434
      ],
      [
        "田中",
        -9.868978500366213
      ],
      [
        "ri",
        -9.86921215057373
      ],
      [
        "佐藤",
        -9.869245529174805
      ],
      [
        "令和",
        -9.86961841583252
      ],
      [
        "改造",
        -9.869999885559082
      ],
      [
        "普通",
        -9.87078857421875
      ],
      [
        "強化",
        -9.870902061462402
      ],
      [
        "分布",
        -9.871207237243652
      ],
      [
        "香港",
        -9.87126922607422
      ],
      [
        "澤",
        -9.871295928955078
      ],
      [
        "展示",
        -9.871467590332031
      ],
      [
        "商業",
        -9.873014450073242
      ],
      [
        "しなかった",
        -9.873570442199709
      ],
      [
        "失敗",
        -9.873819351196287
      ],
      [
        "市出身",
        -9.873823165893556
      ],
      [
        "域",
        -9.874669075012209
      ],
      [
        "タル",
        -9.875056266784668
      ],
      [
        "変",
        -9.875473022460938
      ],
      [
        "結合",
        -9.875473022460938
      ],
      [
        "制御",
        -9.875724792480469
      ],
      [
        "59",
        -9.876502990722656
      ],
      [
        "投票",
        -9.87663459777832
      ],
      [
        "57",
        -9.877104759216309
      ],
      [
        "見る",
        -9.877286911010742
      ],
      [
        "強く",
        -9.87733268737793
      ],
      [
        "ライト",
        -9.877901077270508
      ],
      [
        "極",
        -9.8779296875
      ],
      [
        "ポール",
        -9.878850936889648
      ],
      [
        "com",
        -9.87934684753418
      ],
      [
        "矢",
        -9.879673957824709
      ],
      [
        "スキー",
        -9.880123138427734
      ],
      [
        "化学",
        -9.880477905273438
      ],
      [
        "1967",
        -9.881202697753906
      ],
      [
        "アップ",
        -9.881492614746094
      ],
      [
        "各地",
        -9.881893157958984
      ],
      [
        "ミン",
        -9.883177757263184
      ],
      [
        "ニア",
        -9.883625030517578
      ],
      [
        "1000",
        -9.883797645568848
      ],
      [
        "航空機",
        -9.883962631225586
      ],
      [
        "神戸",
        -9.884032249450684
      ],
      [
        "しん",
        -9.884115219116213
      ],
      [
        "世代",
        -9.88481330871582
      ],
      [
        "ブリ",
        -9.88481903076172
      ],
      [
        "ni",
        -9.88487434387207
      ],
      [
        "トル",
        -9.886276245117188
      ],
      [
        "冠",
        -9.886303901672363
      ],
      [
        "同一",
        -9.886626243591309
      ],
      [
        "提案",
        -9.88663387298584
      ],
      [
        "注目",
        -9.88701629638672
      ],
      [
        "郎",
        -9.887859344482422
      ],
      [
        "入団",
        -9.888018608093262
      ],
      [
        "無い",
        -9.888404846191406
      ],
      [
        "九",
        -9.88855266571045
      ],
      [
        "慶",
        -9.890121459960938
      ],
      [
        "このような",
        -9.890560150146484
      ],
      [
        "ブルー",
        -9.890725135803224
      ],
      [
        "ja",
        -9.890942573547363
      ],
      [
        "陣",
        -9.89145278930664
      ],
      [
        "ジャパン",
        -9.89227294921875
      ],
      [
        "ラム",
        -9.8928861618042
      ],
      [
        "アナウンサー",
        -9.893564224243164
      ],
      [
        "緑",
        -9.894217491149902
      ],
      [
        "前後",
        -9.894418716430664
      ],
      [
        "かい",
        -9.89472770690918
      ],
      [
        "un",
        -9.894793510437012
      ],
      [
        "ver",
        -9.895907402038574
      ],
      [
        "シェ",
        -9.895966529846191
      ],
      [
        "文書",
        -9.896025657653809
      ],
      [
        "片",
        -9.896344184875488
      ],
      [
        "読み",
        -9.89667797088623
      ],
      [
        "江戸",
        -9.897194862365724
      ],
      [
        "智",
        -9.897428512573242
      ],
      [
        "渡",
        -9.897802352905272
      ],
      [
        "ゲン",
        -9.897871017456056
      ],
      [
        "んだ",
        -9.899155616760254
      ],
      [
        "次郎",
        -9.899240493774414
      ],
      [
        "けん",
        -9.8998441696167
      ],
      [
        "印",
        -9.900625228881836
      ],
      [
        "モー",
        -9.901007652282717
      ],
      [
        "復活",
        -9.901515007019045
      ],
      [
        "ra",
        -9.90220832824707
      ],
      [
        "訓練",
        -9.90230655670166
      ],
      [
        "治療",
        -9.90268325805664
      ],
      [
        "とう",
        -9.90287971496582
      ],
      [
        "明らかに",
        -9.904767036437988
      ],
      [
        "入社",
        -9.905330657958984
      ],
      [
        "也",
        -9.905476570129396
      ],
      [
        "つけ",
        -9.905555725097656
      ],
      [
        "酸",
        -9.905841827392578
      ],
      [
        "資格",
        -9.905851364135742
      ],
      [
        "見せ",
        -9.90591526031494
      ],
      [
        "400",
        -9.906020164489746
      ],
      [
        "泰",
        -9.907095909118652
      ],
      [
        "卒業後",
        -9.907353401184082
      ],
      [
        ".9",
        -9.907776832580566
      ],
      [
        "商",
        -9.90821361541748
      ],
      [
        "打ち",
        -9.908281326293944
      ],
      [
        "交流",
        -9.908674240112305
      ],
      [
        "アフリカ",
        -9.908896446228027
      ],
      [
        "のもと",
        -9.90904426574707
      ],
      [
        "通過",
        -9.909417152404783
      ],
      [
        "思い",
        -9.909564018249512
      ],
      [
        "地震",
        -9.910279273986816
      ],
      [
        "らと",
        -9.91099739074707
      ],
      [
        "茂",
        -9.911206245422363
      ],
      [
        "普及",
        -9.911937713623049
      ],
      [
        "執筆",
        -9.911961555480955
      ],
      [
        "テレビドラマ",
        -9.912592887878418
      ],
      [
        "延長",
        -9.91384220123291
      ],
      [
        "動",
        -9.91457462310791
      ],
      [
        "アーティスト",
        -9.915431022644045
      ],
      [
        "関数",
        -9.91550636291504
      ],
      [
        "使う",
        -9.917291641235352
      ],
      [
        "解",
        -9.917421340942385
      ],
      [
        "要求",
        -9.9185209274292
      ],
      [
        "てい",
        -9.918733596801758
      ],
      [
        "ac",
        -9.918869972229004
      ],
      [
        "プロデューサー",
        -9.919578552246094
      ],
      [
        "ピアノ",
        -9.919855117797852
      ],
      [
        "or",
        -9.920223236083984
      ],
      [
        "視",
        -9.920299530029297
      ],
      [
        "江戸時代",
        -9.920998573303224
      ],
      [
        "ック",
        -9.921040534973145
      ],
      [
        "イメージ",
        -9.921058654785156
      ],
      [
        "費",
        -9.921133041381836
      ],
      [
        "am",
        -9.921465873718262
      ],
      [
        "ブラ",
        -9.9218111038208
      ],
      [
        "元年",
        -9.922046661376951
      ],
      [
        "異なり",
        -9.922110557556152
      ],
      [
        "スタイル",
        -9.922381401062012
      ],
      [
        "so",
        -9.923749923706056
      ],
      [
        "オル",
        -9.923855781555176
      ],
      [
        "部屋",
        -9.923874855041504
      ],
      [
        "前作",
        -9.92387866973877
      ],
      [
        "名義",
        -9.924227714538574
      ],
      [
        "被害",
        -9.924811363220217
      ],
      [
        "関西",
        -9.92638874053955
      ],
      [
        "サッカー選手",
        -9.926466941833496
      ],
      [
        "あまり",
        -9.92669677734375
      ],
      [
        "沼",
        -9.926743507385254
      ],
      [
        "難",
        -9.92692756652832
      ],
      [
        "霊",
        -9.927407264709473
      ],
      [
        "ファー",
        -9.9276704788208
      ],
      [
        "求め",
        -9.9288969039917
      ],
      [
        "圏",
        -9.929691314697266
      ],
      [
        "タレント",
        -9.930285453796388
      ],
      [
        "美術",
        -9.930285453796388
      ],
      [
        "ウクライナ",
        -9.930462837219238
      ],
      [
        "部長",
        -9.930851936340332
      ],
      [
        "後述",
        -9.93123722076416
      ],
      [
        "ボール",
        -9.931392669677734
      ],
      [
        "出した",
        -9.931573867797852
      ],
      [
        "軽",
        -9.931735038757324
      ],
      [
        "姫",
        -9.931790351867676
      ],
      [
        "ドイツ語",
        -9.93301773071289
      ],
      [
        "ヒット",
        -9.934103965759276
      ],
      [
        "ユー",
        -9.935185432434082
      ],
      [
        "概念",
        -9.935256958007812
      ],
      [
        "1962",
        -9.935797691345217
      ],
      [
        "味",
        -9.93596649169922
      ],
      [
        "倉",
        -9.936115264892578
      ],
      [
        "機械",
        -9.936854362487791
      ],
      [
        "起用",
        -9.937061309814451
      ],
      [
        "勢",
        -9.937077522277832
      ],
      [
        "計算",
        -9.93738079071045
      ],
      [
        "ヴァー",
        -9.937417984008787
      ],
      [
        "伝説",
        -9.93743133544922
      ],
      [
        "カラー",
        -9.93931484222412
      ],
      [
        "比べ",
        -9.939364433288574
      ],
      [
        "ソ連",
        -9.93952465057373
      ],
      [
        "リス",
        -9.939626693725586
      ],
      [
        "推定",
        -9.939837455749512
      ],
      [
        "操作",
        -9.939947128295898
      ],
      [
        "スウェーデン",
        -9.940016746520996
      ],
      [
        "ヴァン",
        -9.94005012512207
      ],
      [
        "移行",
        -9.94179916381836
      ],
      [
        "まず",
        -9.942355155944824
      ],
      [
        "作り",
        -9.943399429321287
      ],
      [
        "1965",
        -9.94372844696045
      ],
      [
        "地下",
        -9.94452953338623
      ],
      [
        "勝ち",
        -9.944931983947754
      ],
      [
        "恋",
        -9.94508457183838
      ],
      [
        "グランプリ",
        -9.945663452148438
      ],
      [
        "ソフト",
        -9.945791244506836
      ],
      [
        "グラ",
        -9.947022438049316
      ],
      [
        "ジャー",
        -9.947190284729004
      ],
      [
        "ちゃん",
        -9.947431564331056
      ],
      [
        "貴族",
        -9.947972297668455
      ],
      [
        "制定",
        -9.948598861694336
      ],
      [
        "自動",
        -9.950108528137209
      ],
      [
        "コル",
        -9.950427055358888
      ],
      [
        "1966",
        -9.950457572937012
      ],
      [
        "困難",
        -9.950700759887695
      ],
      [
        "判断",
        -9.95096492767334
      ],
      [
        "プレ",
        -9.951305389404297
      ],
      [
        "カラ",
        -9.951889991760254
      ],
      [
        "の子",
        -9.952641487121582
      ],
      [
        "ki",
        -9.953232765197754
      ],
      [
        "言われ",
        -9.953453063964844
      ],
      [
        "に近い",
        -9.953622817993164
      ],
      [
        "安全",
        -9.95368766784668
      ],
      [
        "tbs",
        -9.955537796020508
      ],
      [
        "ダンス",
        -9.956666946411133
      ],
      [
        "に基づく",
        -9.956942558288574
      ],
      [
        "指名",
        -9.957429885864258
      ],
      [
        "トラック",
        -9.95779800415039
      ],
      [
        "議員",
        -9.958221435546877
      ],
      [
        "素",
        -9.958288192749023
      ],
      [
        "lo",
        -9.958998680114746
      ],
      [
        "弁",
        -9.95924186706543
      ],
      [
        "命令",
        -9.959322929382324
      ],
      [
        "柳",
        -9.959558486938477
      ],
      [
        "精神",
        -9.960033416748049
      ],
      [
        "コーチ",
        -9.960382461547852
      ],
      [
        "用いられる",
        -9.9606294631958
      ],
      [
        "欧州",
        -9.961380958557127
      ],
      [
        "合わせ",
        -9.962115287780762
      ],
      [
        "人と",
        -9.962374687194824
      ],
      [
        "ぐ",
        -9.962501525878906
      ],
      [
        "自治体",
        -9.963293075561523
      ],
      [
        "供給",
        -9.96376132965088
      ],
      [
        "宣言",
        -9.964200973510742
      ],
      [
        "安定",
        -9.964320182800291
      ],
      [
        "スタッフ",
        -9.964624404907228
      ],
      [
        "杯",
        -9.965195655822754
      ],
      [
        "市長",
        -9.965332984924316
      ],
      [
        "脚本",
        -9.966440200805664
      ],
      [
        "呼称",
        -9.967185974121094
      ],
      [
        "for",
        -9.96841526031494
      ],
      [
        "農",
        -9.968435287475586
      ],
      [
        "訳",
        -9.968440055847168
      ],
      [
        "id",
        -9.968585968017578
      ],
      [
        "古代",
        -9.969018936157228
      ],
      [
        "連絡",
        -9.969085693359377
      ],
      [
        "阿",
        -9.969646453857422
      ],
      [
        "競走",
        -9.969809532165527
      ],
      [
        "任",
        -9.970131874084473
      ],
      [
        "に入り",
        -9.970589637756348
      ],
      [
        "枝",
        -9.970857620239258
      ],
      [
        "本来",
        -9.972108840942385
      ],
      [
        "再開",
        -9.97215175628662
      ],
      [
        "吉田",
        -9.972583770751951
      ],
      [
        "境",
        -9.973943710327148
      ],
      [
        "当選",
        -9.97396183013916
      ],
      [
        "51",
        -9.974167823791504
      ],
      [
        "中止",
        -9.974178314208984
      ],
      [
        "中華人民共和国",
        -9.974502563476562
      ],
      [
        "cc",
        -9.975350379943848
      ],
      [
        "回転",
        -9.975489616394045
      ],
      [
        "使っ",
        -9.976262092590332
      ],
      [
        "sh",
        -9.976557731628418
      ],
      [
        "フォード",
        -9.977547645568848
      ],
      [
        "基地",
        -9.978666305541992
      ],
      [
        "作用",
        -9.979859352111816
      ],
      [
        "ウェイ",
        -9.979958534240724
      ],
      [
        "フォ",
        -9.98037338256836
      ],
      [
        "!!",
        -9.980935096740724
      ],
      [
        "本塁打",
        -9.98111057281494
      ],
      [
        "エス",
        -9.98158359527588
      ],
      [
        "裕",
        -9.982873916625977
      ],
      [
        "いい",
        -9.98329734802246
      ],
      [
        "逮捕",
        -9.983319282531738
      ],
      [
        "太陽",
        -9.983538627624512
      ],
      [
        "区別",
        -9.98371124267578
      ],
      [
        "用いる",
        -9.984929084777832
      ],
      [
        "au",
        -9.985396385192873
      ],
      [
        "52",
        -9.986495971679688
      ],
      [
        "残",
        -9.988739013671877
      ],
      [
        "後期",
        -9.98892307281494
      ],
      [
        "クロ",
        -9.989302635192873
      ],
      [
        "車体",
        -9.991586685180664
      ],
      [
        "分離",
        -9.992206573486328
      ],
      [
        "ちょう",
        -9.992786407470703
      ],
      [
        "確保",
        -9.992807388305664
      ],
      [
        "なし",
        -9.993046760559082
      ],
      [
        "モード",
        -9.993441581726074
      ],
      [
        "ペン",
        -9.993648529052734
      ],
      [
        "本人",
        -9.99396800994873
      ],
      [
        "ter",
        -9.99467658996582
      ],
      [
        "セント",
        -9.994691848754885
      ],
      [
        "用いた",
        -9.994991302490234
      ],
      [
        "価格",
        -9.995712280273438
      ],
      [
        "近",
        -9.995782852172852
      ],
      [
        "住宅",
        -9.995821952819824
      ],
      [
        "剤",
        -9.995841026306152
      ],
      [
        "通算",
        -9.99680233001709
      ],
      [
        "クラ",
        -9.997315406799316
      ],
      [
        "更に",
        -9.997613906860352
      ],
      [
        "ないと",
        -9.997714042663574
      ],
      [
        "亜",
        -9.998291969299316
      ],
      [
        "茶",
        -9.99847412109375
      ],
      [
        "ルート",
        -9.999570846557615
      ],
      [
        "ex",
        -9.999691009521484
      ],
      [
        "ɪ",
        -9.999750137329102
      ],
      [
        "歯",
        -9.999754905700684
      ],
      [
        "健",
        -10.000004768371582
      ],
      [
        "廃",
        -10.000577926635742
      ],
      [
        "脳",
        -10.000600814819336
      ],
      [
        "プラ",
        -10.000614166259766
      ],
      [
        "指",
        -10.000616073608398
      ],
      [
        "音声",
        -10.000789642333984
      ],
      [
        "av",
        -10.001352310180664
      ],
      [
        "いわゆる",
        -10.001662254333496
      ],
      [
        "動き",
        -10.001981735229492
      ],
      [
        "広く",
        -10.00265407562256
      ],
      [
        "キャ",
        -10.003397941589355
      ],
      [
        "設備",
        -10.003461837768556
      ],
      [
        "始まった",
        -10.00369644165039
      ],
      [
        "sp",
        -10.004465103149414
      ],
      [
        "ッツ",
        -10.004716873168944
      ],
      [
        "シャー",
        -10.005830764770508
      ],
      [
        "オール",
        -10.005938529968262
      ],
      [
        "53",
        -10.006016731262209
      ],
      [
        "課",
        -10.006827354431152
      ],
      [
        "略",
        -10.006877899169922
      ],
      [
        "アス",
        -10.007088661193848
      ],
      [
        "サイ",
        -10.007375717163086
      ],
      [
        "ブラック",
        -10.00760269165039
      ],
      [
        "されるように",
        -10.00760555267334
      ],
      [
        "作詞",
        -10.007684707641602
      ],
      [
        "1963",
        -10.007723808288574
      ],
      [
        "仲",
        -10.007742881774902
      ],
      [
        "権利",
        -10.0081787109375
      ],
      [
        "フィールド",
        -10.00857162475586
      ],
      [
        "遊",
        -10.009522438049316
      ],
      [
        "合計",
        -10.00991153717041
      ],
      [
        "ドー",
        -10.00994873046875
      ],
      [
        "目標",
        -10.010089874267578
      ],
      [
        "po",
        -10.01011085510254
      ],
      [
        "たり",
        -10.011174201965332
      ],
      [
        "機体",
        -10.011399269104004
      ],
      [
        "黄",
        -10.011868476867676
      ],
      [
        "肉",
        -10.012110710144045
      ],
      [
        "能",
        -10.012391090393066
      ],
      [
        "皇帝",
        -10.012928009033203
      ],
      [
        "対立",
        -10.013223648071287
      ],
      [
        "el",
        -10.013273239135742
      ],
      [
        "奈",
        -10.014049530029297
      ],
      [
        "ヒル",
        -10.01414394378662
      ],
      [
        "66",
        -10.014959335327148
      ],
      [
        "イー",
        -10.015010833740234
      ],
      [
        "傾向",
        -10.01547145843506
      ],
      [
        "網",
        -10.016766548156738
      ],
      [
        "言",
        -10.017544746398926
      ],
      [
        "生徒",
        -10.01756191253662
      ],
      [
        "適用",
        -10.01826286315918
      ],
      [
        "グリーン",
        -10.0184907913208
      ],
      [
        "メキシコ",
        -10.018621444702148
      ],
      [
        "すなわち",
        -10.018793106079102
      ],
      [
        "検討",
        -10.01889991760254
      ],
      [
        "急",
        -10.019487380981444
      ],
      [
        "レッド",
        -10.019707679748535
      ],
      [
        "ミニ",
        -10.01971435546875
      ],
      [
        "su",
        -10.02065658569336
      ],
      [
        "分析",
        -10.020788192749023
      ],
      [
        "堀",
        -10.021484375
      ],
      [
        "クル",
        -10.02176284790039
      ],
      [
        "修",
        -10.022114753723145
      ],
      [
        "プレイヤー",
        -10.02254581451416
      ],
      [
        "美術館",
        -10.02263069152832
      ],
      [
        "少女",
        -10.022696495056152
      ],
      [
        "房",
        -10.022719383239746
      ],
      [
        "1940",
        -10.023414611816406
      ],
      [
        "ジュニア",
        -10.023992538452148
      ],
      [
        "ソフトウェア",
        -10.024080276489258
      ],
      [
        "地上",
        -10.02422332763672
      ],
      [
        "周囲",
        -10.024550437927246
      ],
      [
        "1959",
        -10.025442123413086
      ],
      [
        "作目",
        -10.025945663452148
      ],
      [
        "一度",
        -10.026082992553713
      ],
      [
        "始まり",
        -10.02674388885498
      ],
      [
        "純",
        -10.027093887329102
      ],
      [
        "置かれ",
        -10.02720069885254
      ],
      [
        "服",
        -10.028563499450684
      ],
      [
        "山田",
        -10.028820991516112
      ],
      [
        "剣",
        -10.028876304626465
      ],
      [
        "ワールドカップ",
        -10.029000282287598
      ],
      [
        "サイド",
        -10.029064178466797
      ],
      [
        "ロード",
        -10.02960205078125
      ],
      [
        "も多い",
        -10.030038833618164
      ],
      [
        "編集",
        -10.0304536819458
      ],
      [
        "機器",
        -10.031496047973633
      ],
      [
        "意識",
        -10.032944679260254
      ],
      [
        "小型",
        -10.033114433288574
      ],
      [
        "度目",
        -10.033402442932127
      ],
      [
        "遺跡",
        -10.034937858581545
      ],
      [
        "ほ",
        -10.035199165344238
      ],
      [
        "オフ",
        -10.03538417816162
      ],
      [
        "ブロック",
        -10.03597354888916
      ],
      [
        "検査",
        -10.035999298095703
      ],
      [
        "意見",
        -10.036483764648438
      ],
      [
        "祖",
        -10.036741256713867
      ],
      [
        "平和",
        -10.03720474243164
      ],
      [
        "翼",
        -10.037263870239258
      ],
      [
        "入れ",
        -10.037755012512209
      ],
      [
        "地位",
        -10.037909507751465
      ],
      [
        "ベイ",
        -10.038241386413574
      ],
      [
        "会場",
        -10.038607597351074
      ],
      [
        "早",
        -10.038765907287598
      ],
      [
        "含まれ",
        -10.039259910583496
      ],
      [
        "インターネット",
        -10.039340019226074
      ],
      [
        "プリ",
        -10.040040969848633
      ],
      [
        "タウン",
        -10.040688514709473
      ],
      [
        "ーン",
        -10.041513442993164
      ],
      [
        "乗",
        -10.042003631591797
      ],
      [
        "既に",
        -10.042580604553224
      ],
      [
        "ナイト",
        -10.042694091796877
      ],
      [
        "ab",
        -10.04310131072998
      ],
      [
        "シア",
        -10.043133735656738
      ],
      [
        "ゴー",
        -10.04416561126709
      ],
      [
        "昭",
        -10.045024871826172
      ],
      [
        "二人",
        -10.045272827148438
      ],
      [
        "就",
        -10.045310974121094
      ],
      [
        "取",
        -10.045635223388672
      ],
      [
        "穴",
        -10.046295166015623
      ],
      [
        "live",
        -10.04659366607666
      ],
      [
        "王座",
        -10.046860694885254
      ],
      [
        "エイ",
        -10.047624588012695
      ],
      [
        "朝鮮",
        -10.047725677490234
      ],
      [
        "il",
        -10.048406600952148
      ],
      [
        "諸島",
        -10.048795700073242
      ],
      [
        "んで",
        -10.050392150878906
      ],
      [
        "ずつ",
        -10.050885200500488
      ],
      [
        "山本",
        -10.052579879760742
      ],
      [
        "ギター",
        -10.052774429321287
      ],
      [
        "考えられる",
        -10.0527982711792
      ],
      [
        "金属",
        -10.053057670593262
      ],
      [
        "未来",
        -10.053253173828123
      ],
      [
        "年現在",
        -10.05386734008789
      ],
      [
        "食品",
        -10.053997039794922
      ],
      [
        "脱",
        -10.054850578308104
      ],
      [
        "ナン",
        -10.05509090423584
      ],
      [
        "残っ",
        -10.055174827575684
      ],
      [
        "福岡",
        -10.055907249450684
      ],
      [
        "エリア",
        -10.057318687438965
      ],
      [
        "除く",
        -10.05754280090332
      ],
      [
        "☆",
        -10.05899715423584
      ],
      [
        "寿",
        -10.05908203125
      ],
      [
        "沖縄",
        -10.05921745300293
      ],
      [
        "症",
        -10.059247970581056
      ],
      [
        "アイルランド",
        -10.05959129333496
      ],
      [
        "前身",
        -10.059765815734863
      ],
      [
        "サル",
        -10.06037712097168
      ],
      [
        "sf",
        -10.060647010803224
      ],
      [
        "残り",
        -10.0609712600708
      ],
      [
        "実行",
        -10.061185836791992
      ],
      [
        "スイス",
        -10.06202220916748
      ],
      [
        "トンネル",
        -10.062177658081056
      ],
      [
        "藤原",
        -10.062273979187012
      ],
      [
        "今日",
        -10.062565803527832
      ],
      [
        "大臣",
        -10.062600135803224
      ],
      [
        "甲",
        -10.06297779083252
      ],
      [
        "東北",
        -10.063441276550291
      ],
      [
        "墓",
        -10.063833236694336
      ],
      [
        "大きい",
        -10.064099311828612
      ],
      [
        "ファイル",
        -10.064434051513672
      ],
      [
        "嘉",
        -10.065290451049805
      ],
      [
        "儀",
        -10.065775871276855
      ],
      [
        "作る",
        -10.06582736968994
      ],
      [
        "unicode",
        -10.06642246246338
      ],
      [
        "きなかった",
        -10.06703758239746
      ],
      [
        "°",
        -10.06728172302246
      ],
      [
        "健康",
        -10.067557334899902
      ],
      [
        "登板",
        -10.067740440368652
      ],
      [
        "イオン",
        -10.068306922912598
      ],
      [
        "学院",
        -10.068742752075195
      ],
      [
        "son",
        -10.069156646728516
      ],
      [
        "用語",
        -10.069672584533691
      ],
      [
        "ポン",
        -10.070356369018556
      ],
      [
        "ビン",
        -10.070427894592283
      ],
      [
        "ir",
        -10.070863723754885
      ],
      [
        "1930",
        -10.071136474609377
      ],
      [
        "高速",
        -10.071457862854004
      ],
      [
        "高橋",
        -10.07224464416504
      ],
      [
        "かかわらず",
        -10.072532653808594
      ],
      [
        "積",
        -10.073144912719728
      ],
      [
        "アリ",
        -10.073389053344728
      ],
      [
        "低い",
        -10.074414253234863
      ],
      [
        "尚",
        -10.07445240020752
      ],
      [
        "1944",
        -10.074666976928713
      ],
      [
        "マス",
        -10.074732780456545
      ],
      [
        "99",
        -10.075977325439451
      ],
      [
        "主要",
        -10.07642650604248
      ],
      [
        "性能",
        -10.076799392700195
      ],
      [
        "ます",
        -10.076868057250977
      ],
      [
        "my",
        -10.077570915222168
      ],
      [
        "ッチ",
        -10.077845573425291
      ],
      [
        "転",
        -10.078092575073242
      ],
      [
        "窓",
        -10.078117370605469
      ],
      [
        "ゾ",
        -10.07817554473877
      ],
      [
        "ホー",
        -10.078402519226074
      ],
      [
        "95",
        -10.078568458557127
      ],
      [
        "改革",
        -10.078780174255373
      ],
      [
        "唐",
        -10.07919979095459
      ],
      [
        "1961",
        -10.079261779785156
      ],
      [
        "ろう",
        -10.079353332519531
      ],
      [
        "スペシャル",
        -10.079566955566406
      ],
      [
        "拡張",
        -10.080164909362791
      ],
      [
        "環",
        -10.080995559692385
      ],
      [
        "サポート",
        -10.081089973449709
      ],
      [
        "在籍",
        -10.081181526184082
      ],
      [
        "表明",
        -10.081196784973145
      ],
      [
        "中継",
        -10.081284523010254
      ],
      [
        "医",
        -10.081449508666992
      ],
      [
        "67",
        -10.081450462341309
      ],
      [
        "分割",
        -10.081538200378418
      ],
      [
        "辺",
        -10.08166217803955
      ],
      [
        "離れ",
        -10.081974029541016
      ],
      [
        "スクール",
        -10.082079887390137
      ],
      [
        "見られ",
        -10.082231521606444
      ],
      [
        "行き",
        -10.082289695739746
      ],
      [
        "前述",
        -10.082369804382324
      ],
      [
        "物質",
        -10.082409858703612
      ],
      [
        "妹",
        -10.08275032043457
      ],
      [
        "半島",
        -10.083128929138184
      ],
      [
        "pe",
        -10.083252906799316
      ],
      [
        "演出",
        -10.083348274230955
      ],
      [
        "合成",
        -10.083579063415527
      ],
      [
        "近代",
        -10.083789825439451
      ],
      [
        "指導者",
        -10.083858489990234
      ],
      [
        "}}",
        -10.083975791931152
      ],
      [
        "アイドル",
        -10.08411693572998
      ],
      [
        "メイ",
        -10.084195137023926
      ],
      [
        "術",
        -10.085745811462402
      ],
      [
        "ラス",
        -10.086143493652344
      ],
      [
        "傷",
        -10.086259841918944
      ],
      [
        "引",
        -10.086689949035645
      ],
      [
        "ット",
        -10.08713150024414
      ],
      [
        "フォー",
        -10.087275505065918
      ],
      [
        "与える",
        -10.087639808654783
      ],
      [
        "ā",
        -10.0882568359375
      ],
      [
        "形状",
        -10.08839988708496
      ],
      [
        "録音",
        -10.088611602783203
      ],
      [
        "翻訳",
        -10.089045524597168
      ],
      [
        "英国",
        -10.089638710021973
      ],
      [
        "wa",
        -10.089946746826172
      ],
      [
        "輝",
        -10.090055465698242
      ],
      [
        "1947",
        -10.090171813964844
      ],
      [
        "基礎",
        -10.09030818939209
      ],
      [
        "マリ",
        -10.090903282165527
      ],
      [
        "ヤン",
        -10.090941429138184
      ],
      [
        "賀",
        -10.091436386108398
      ],
      [
        "バラ",
        -10.091631889343262
      ],
      [
        "向",
        -10.09195613861084
      ],
      [
        "良い",
        -10.092609405517578
      ],
      [
        "ation",
        -10.092766761779783
      ],
      [
        "62",
        -10.093531608581545
      ],
      [
        "小さな",
        -10.093682289123535
      ],
      [
        "カイ",
        -10.09510326385498
      ],
      [
        "数多く",
        -10.095270156860352
      ],
      [
        "むら",
        -10.095418930053713
      ],
      [
        "走",
        -10.095484733581545
      ],
      [
        "博士",
        -10.096059799194336
      ],
      [
        "特",
        -10.096179008483888
      ],
      [
        "梅",
        -10.096450805664062
      ],
      [
        "ビジネス",
        -10.09676742553711
      ],
      [
        "わけ",
        -10.096809387207031
      ],
      [
        "描かれ",
        -10.097382545471191
      ],
      [
        "労働",
        -10.09775161743164
      ],
      [
        "動画",
        -10.098438262939451
      ],
      [
        "one",
        -10.09888744354248
      ],
      [
        "要",
        -10.099483489990234
      ],
      [
        "脚",
        -10.09950065612793
      ],
      [
        "ru",
        -10.100061416625977
      ],
      [
        "du",
        -10.100125312805176
      ],
      [
        "傘下",
        -10.100239753723145
      ],
      [
        "カバー",
        -10.100253105163574
      ],
      [
        "エー",
        -10.100372314453123
      ],
      [
        "レーベル",
        -10.100390434265137
      ],
      [
        "なくなった",
        -10.10047435760498
      ],
      [
        "劇",
        -10.101473808288574
      ],
      [
        "アナ",
        -10.1014986038208
      ],
      [
        "ソロ",
        -10.10206699371338
      ],
      [
        "回戦",
        -10.102803230285645
      ],
      [
        "スタジアム",
        -10.102928161621094
      ],
      [
        "区域",
        -10.10308837890625
      ],
      [
        "到着",
        -10.10379695892334
      ],
      [
        "立ち",
        -10.103934288024902
      ],
      [
        "さまざまな",
        -10.10456657409668
      ],
      [
        "解説",
        -10.10513687133789
      ],
      [
        "衛星",
        -10.105271339416504
      ],
      [
        "柱",
        -10.10682773590088
      ],
      [
        "ないか",
        -10.107197761535645
      ],
      [
        "そ",
        -10.107675552368164
      ],
      [
        "承認",
        -10.107922554016112
      ],
      [
        "球団",
        -10.108129501342772
      ],
      [
        "わたっ",
        -10.108227729797363
      ],
      [
        "憲法",
        -10.108683586120604
      ],
      [
        "ルール",
        -10.10886001586914
      ],
      [
        "伯爵",
        -10.10985279083252
      ],
      [
        "行く",
        -10.110217094421388
      ],
      [
        "じょう",
        -10.110291481018066
      ],
      [
        "ボン",
        -10.110435485839844
      ],
      [
        "富士",
        -10.111529350280762
      ],
      [
        "愛知県",
        -10.111653327941896
      ],
      [
        "改善",
        -10.111783981323242
      ],
      [
        "許可",
        -10.111791610717772
      ],
      [
        "自己",
        -10.112177848815918
      ],
      [
        "1958",
        -10.112189292907717
      ],
      [
        "扱い",
        -10.11220932006836
      ],
      [
        "期待",
        -10.112944602966309
      ],
      [
        "編入",
        -10.1131591796875
      ],
      [
        "誰",
        -10.113452911376951
      ],
      [
        "刀",
        -10.114686012268066
      ],
      [
        "上げ",
        -10.115473747253418
      ],
      [
        "ケース",
        -10.115521430969238
      ],
      [
        "ミス",
        -10.1156005859375
      ],
      [
        "オス",
        -10.115910530090332
      ],
      [
        "ia",
        -10.11678695678711
      ],
      [
        "ルイ",
        -10.117830276489258
      ],
      [
        "改正",
        -10.117867469787598
      ],
      [
        "一定",
        -10.11809253692627
      ],
      [
        "不足",
        -10.118233680725098
      ],
      [
        "立場",
        -10.118289947509766
      ],
      [
        "畑",
        -10.118624687194824
      ],
      [
        "ダル",
        -10.118794441223145
      ],
      [
        "歩",
        -10.119057655334473
      ],
      [
        "鶴",
        -10.119115829467772
      ],
      [
        "手法",
        -10.119218826293944
      ],
      [
        "新設",
        -10.120007514953612
      ],
      [
        "戦略",
        -10.121115684509276
      ],
      [
        "医師",
        -10.121379852294922
      ],
      [
        "各種",
        -10.121792793273926
      ],
      [
        "um",
        -10.121844291687012
      ],
      [
        "弁護士",
        -10.122610092163086
      ],
      [
        "デス",
        -10.122663497924805
      ],
      [
        "加盟",
        -10.12269115447998
      ],
      [
        "競馬",
        -10.122803688049316
      ],
      [
        "63",
        -10.12484073638916
      ],
      [
        "営業所",
        -10.124852180480955
      ],
      [
        "交渉",
        -10.124977111816406
      ],
      [
        "et",
        -10.1251220703125
      ],
      [
        "方針",
        -10.12523365020752
      ],
      [
        "移住",
        -10.125823974609377
      ],
      [
        "向かう",
        -10.12636661529541
      ],
      [
        "鬼",
        -10.126904487609863
      ],
      [
        "速",
        -10.12721824645996
      ],
      [
        "殺害",
        -10.127553939819336
      ],
      [
        "ds",
        -10.129131317138672
      ],
      [
        "ロバート",
        -10.12934112548828
      ],
      [
        "現役",
        -10.129406929016112
      ],
      [
        "1948",
        -10.129557609558104
      ],
      [
        "買収",
        -10.129626274108888
      ],
      [
        "持",
        -10.130301475524902
      ],
      [
        "完全に",
        -10.13037109375
      ],
      [
        "友人",
        -10.130436897277832
      ],
      [
        "占領",
        -10.130821228027344
      ],
      [
        "将",
        -10.132229804992676
      ],
      [
        "コンサート",
        -10.132338523864746
      ],
      [
        "テスト",
        -10.132966995239258
      ],
      [
        "法人",
        -10.133148193359377
      ],
      [
        "japan",
        -10.133277893066406
      ],
      [
        "銃",
        -10.133360862731934
      ],
      [
        "本線",
        -10.133883476257324
      ],
      [
        "旗",
        -10.13410472869873
      ],
      [
        "現象",
        -10.134182929992676
      ],
      [
        "児童",
        -10.134267807006836
      ],
      [
        "礼",
        -10.134466171264648
      ],
      [
        "61",
        -10.134476661682127
      ],
      [
        "知事",
        -10.134504318237305
      ],
      [
        "込む",
        -10.13450527191162
      ],
      [
        "もなく",
        -10.134551048278809
      ],
      [
        "税",
        -10.135196685791016
      ],
      [
        "キャリア",
        -10.135303497314451
      ],
      [
        "α",
        -10.136127471923828
      ],
      [
        "講師",
        -10.136402130126951
      ],
      [
        "雅",
        -10.136549949645996
      ],
      [
        "1941",
        -10.136905670166016
      ],
      [
        "小林",
        -10.13713264465332
      ],
      [
        "ヴェル",
        -10.13733959197998
      ],
      [
        "150",
        -10.137367248535156
      ],
      [
        "短",
        -10.137493133544922
      ],
      [
        "ベルリン",
        -10.13787841796875
      ],
      [
        "準備",
        -10.138266563415527
      ],
      [
        "1956",
        -10.139338493347168
      ],
      [
        "患者",
        -10.14161491394043
      ],
      [
        "認識",
        -10.142330169677734
      ],
      [
        "中世",
        -10.142573356628418
      ],
      [
        "撤退",
        -10.142632484436035
      ],
      [
        "賢",
        -10.142745018005373
      ],
      [
        "fe",
        -10.143070220947266
      ],
      [
        "塚",
        -10.143107414245604
      ],
      [
        "パス",
        -10.14312744140625
      ],
      [
        "ゲスト",
        -10.143254280090332
      ],
      [
        "1955",
        -10.14373779296875
      ],
      [
        "政党",
        -10.144769668579102
      ],
      [
        "表面",
        -10.144832611083984
      ],
      [
        "出力",
        -10.14489459991455
      ],
      [
        "固定",
        -10.144906997680664
      ],
      [
        "ce",
        -10.144929885864258
      ],
      [
        "資金",
        -10.145712852478027
      ],
      [
        "帰国",
        -10.145733833312988
      ],
      [
        "元々",
        -10.146088600158691
      ],
      [
        "週",
        -10.146352767944336
      ],
      [
        "伊藤",
        -10.146419525146484
      ],
      [
        "88",
        -10.146482467651367
      ],
      [
        "底",
        -10.14694595336914
      ],
      [
        "アラ",
        -10.147459030151367
      ],
      [
        "1949",
        -10.147747993469238
      ],
      [
        "医学",
        -10.148065567016602
      ],
      [
        "論文",
        -10.148435592651367
      ],
      [
        "背景",
        -10.148545265197754
      ],
      [
        "床",
        -10.14858341217041
      ],
      [
        "ガル",
        -10.148796081542969
      ],
      [
        "特殊",
        -10.148984909057615
      ],
      [
        "取締役",
        -10.149063110351562
      ],
      [
        "油",
        -10.14923095703125
      ],
      [
        "武器",
        -10.149624824523926
      ],
      [
        "1946",
        -10.149654388427734
      ],
      [
        "改良",
        -10.14974594116211
      ],
      [
        "かわ",
        -10.149991035461426
      ],
      [
        "ku",
        -10.150635719299316
      ],
      [
        "学部",
        -10.150971412658691
      ],
      [
        "78",
        -10.151402473449709
      ],
      [
        "大阪府",
        -10.151853561401367
      ],
      [
        "ただ",
        -10.151911735534668
      ],
      [
        "98",
        -10.152512550354004
      ],
      [
        "様",
        -10.152802467346191
      ],
      [
        "キリスト教",
        -10.15329933166504
      ],
      [
        "85",
        -10.15342140197754
      ],
      [
        "規制",
        -10.154361724853516
      ],
      [
        "原則",
        -10.154765129089355
      ],
      [
        "幕",
        -10.155290603637695
      ],
      [
        "ハル",
        -10.155436515808104
      ],
      [
        "調整",
        -10.155699729919434
      ],
      [
        "提出",
        -10.156001091003418
      ],
      [
        "おお",
        -10.157588005065918
      ],
      [
        "使い",
        -10.158967971801758
      ],
      [
        "まる",
        -10.15933609008789
      ],
      [
        "ms",
        -10.159626007080078
      ],
      [
        "集合",
        -10.159692764282228
      ],
      [
        "山口",
        -10.16018295288086
      ],
      [
        "砂",
        -10.160910606384276
      ],
      [
        "86",
        -10.160984992980955
      ],
      [
        "コムーネ",
        -10.161291122436523
      ],
      [
        "血液型",
        -10.161539077758787
      ],
      [
        "理解",
        -10.161834716796877
      ],
      [
        "電話",
        -10.16279411315918
      ],
      [
        "改名",
        -10.16330337524414
      ],
      [
        "per",
        -10.16429042816162
      ],
      [
        "スペース",
        -10.164305686950684
      ],
      [
        "名で",
        -10.164911270141602
      ],
      [
        "続",
        -10.164979934692385
      ],
      [
        "ヘル",
        -10.165207862854004
      ],
      [
        "かなり",
        -10.165226936340332
      ],
      [
        "デー",
        -10.165281295776367
      ],
      [
        "1952",
        -10.165489196777344
      ],
      [
        "挑戦",
        -10.166013717651367
      ],
      [
        "本格",
        -10.1660795211792
      ],
      [
        "率いる",
        -10.166168212890623
      ],
      [
        "旅行",
        -10.16648769378662
      ],
      [
        "回目",
        -10.166542053222656
      ],
      [
        "千葉",
        -10.16683864593506
      ],
      [
        "管轄",
        -10.167163848876951
      ],
      [
        "カメラ",
        -10.167309761047363
      ],
      [
        "ケイ",
        -10.167997360229492
      ],
      [
        "上位",
        -10.168251991271973
      ],
      [
        "数学",
        -10.168293952941896
      ],
      [
        "長官",
        -10.168670654296877
      ],
      [
        "思想",
        -10.169105529785156
      ],
      [
        "責任",
        -10.17045783996582
      ],
      [
        "の各",
        -10.171497344970703
      ],
      [
        "1942",
        -10.172035217285156
      ],
      [
        "ウス",
        -10.172507286071776
      ],
      [
        "清水",
        -10.17283821105957
      ],
      [
        "完了",
        -10.172890663146973
      ],
      [
        "電力",
        -10.173017501831056
      ],
      [
        "鹿",
        -10.174297332763672
      ],
      [
        "布",
        -10.174302101135254
      ],
      [
        "lu",
        -10.17442512512207
      ],
      [
        "1954",
        -10.174449920654297
      ],
      [
        "姉",
        -10.17510223388672
      ],
      [
        "母親",
        -10.175204277038574
      ],
      [
        "1943",
        -10.176219940185549
      ],
      [
        "ゲル",
        -10.176595687866213
      ],
      [
        "北緯",
        -10.177084922790527
      ],
      [
        "施行",
        -10.177915573120115
      ],
      [
        "中部",
        -10.178094863891602
      ],
      [
        "マリア",
        -10.178641319274902
      ],
      [
        "接",
        -10.180377960205078
      ],
      [
        "取引",
        -10.180957794189451
      ],
      [
        "戦車",
        -10.181215286254885
      ],
      [
        "舞",
        -10.181315422058104
      ],
      [
        "羅",
        -10.181347846984863
      ],
      [
        "殿",
        -10.18148422241211
      ],
      [
        "披露",
        -10.181915283203123
      ],
      [
        "チン",
        -10.182393074035645
      ],
      [
        "クリ",
        -10.183533668518066
      ],
      [
        "ho",
        -10.183947563171388
      ],
      [
        "与えた",
        -10.184026718139648
      ],
      [
        "日間",
        -10.18415641784668
      ],
      [
        "ai",
        -10.18451690673828
      ],
      [
        "ɛ",
        -10.18454360961914
      ],
      [
        "ドラ",
        -10.184999465942385
      ],
      [
        "アカデミー",
        -10.185087203979492
      ],
      [
        "ボル",
        -10.185425758361816
      ],
      [
        "陸",
        -10.185428619384766
      ],
      [
        "全員",
        -10.185708999633787
      ],
      [
        "老",
        -10.185972213745115
      ],
      [
        "建造",
        -10.186229705810549
      ],
      [
        "用いられ",
        -10.186251640319824
      ],
      [
        "ジャック",
        -10.186285972595217
      ],
      [
        "則",
        -10.186481475830078
      ],
      [
        "過程",
        -10.187138557434082
      ],
      [
        "組合",
        -10.187546730041504
      ],
      [
        "議論",
        -10.187902450561523
      ],
      [
        "街道",
        -10.188053131103516
      ],
      [
        "民間",
        -10.188097953796388
      ],
      [
        "滝",
        -10.188267707824709
      ],
      [
        "デュ",
        -10.188969612121582
      ],
      [
        "注意",
        -10.189523696899414
      ],
      [
        "大陸",
        -10.190315246582031
      ],
      [
        "サイズ",
        -10.19036865234375
      ],
      [
        "大量",
        -10.190536499023438
      ],
      [
        "前年",
        -10.19058895111084
      ],
      [
        "69",
        -10.191011428833008
      ],
      [
        "宏",
        -10.191131591796877
      ],
      [
        "ほう",
        -10.191248893737791
      ],
      [
        "周年",
        -10.191423416137695
      ],
      [
        "敬",
        -10.191449165344238
      ],
      [
        "祐",
        -10.191554069519045
      ],
      [
        "万ドル",
        -10.19167137145996
      ],
      [
        "低下",
        -10.191765785217283
      ],
      [
        "処分",
        -10.19220733642578
      ],
      [
        "任務",
        -10.192466735839844
      ],
      [
        "晴",
        -10.19252586364746
      ],
      [
        "68",
        -10.19285011291504
      ],
      [
        "死後",
        -10.19289207458496
      ],
      [
        "億円",
        -10.19300937652588
      ],
      [
        "寺院",
        -10.193161010742188
      ],
      [
        "76",
        -10.193604469299316
      ],
      [
        "ci",
        -10.193614959716797
      ],
      [
        "師団",
        -10.193923950195312
      ],
      [
        "依頼",
        -10.194058418273926
      ],
      [
        "ネス",
        -10.194185256958008
      ],
      [
        "世界選手権",
        -10.194469451904297
      ],
      [
        "ju",
        -10.194904327392578
      ],
      [
        "回復",
        -10.19493579864502
      ],
      [
        "広告",
        -10.195001602172852
      ],
      [
        "埼玉県",
        -10.19619369506836
      ],
      [
        "見た",
        -10.197148323059082
      ],
      [
        "下記",
        -10.197354316711426
      ],
      [
        "軍人",
        -10.198077201843262
      ],
      [
        "正式",
        -10.19808292388916
      ],
      [
        "研究者",
        -10.19826602935791
      ],
      [
        "系列",
        -10.198324203491213
      ],
      [
        "ピー",
        -10.19855499267578
      ],
      [
        "神経",
        -10.198866844177246
      ],
      [
        "活用",
        -10.200060844421388
      ],
      [
        "卵",
        -10.200298309326172
      ],
      [
        "í",
        -10.20058822631836
      ],
      [
        "腹",
        -10.201358795166016
      ],
      [
        "ヴォ",
        -10.20147705078125
      ],
      [
        "ウル",
        -10.20270824432373
      ],
      [
        "ng",
        -10.202913284301758
      ],
      [
        "開通",
        -10.203003883361816
      ],
      [
        "nd",
        -10.203970909118652
      ],
      [
        "札幌",
        -10.205034255981444
      ],
      [
        "幹線",
        -10.206413269042969
      ],
      [
        "エア",
        -10.20648193359375
      ],
      [
        "無料",
        -10.207202911376951
      ],
      [
        "終え",
        -10.20758819580078
      ],
      [
        "裁判",
        -10.207611083984377
      ],
      [
        "1953",
        -10.207612991333008
      ],
      [
        "具",
        -10.20765495300293
      ],
      [
        "劉",
        -10.208067893981934
      ],
      [
        "デイ",
        -10.208797454833984
      ],
      [
        "直前",
        -10.208849906921388
      ],
      [
        "否定",
        -10.209644317626951
      ],
      [
        "are",
        -10.20968532562256
      ],
      [
        "松本",
        -10.209726333618164
      ],
      [
        "定期",
        -10.210038185119627
      ],
      [
        "1957",
        -10.210162162780762
      ],
      [
        "生成",
        -10.210265159606934
      ],
      [
        "演劇",
        -10.2103853225708
      ],
      [
        "pi",
        -10.211343765258787
      ],
      [
        "優",
        -10.211477279663086
      ],
      [
        "ヘンリー",
        -10.21160888671875
      ],
      [
        "fm",
        -10.211909294128418
      ],
      [
        "あっ",
        -10.212146759033203
      ],
      [
        "bs",
        -10.2123441696167
      ],
      [
        "1920",
        -10.212431907653809
      ],
      [
        "哲学",
        -10.21351432800293
      ],
      [
        "たもの",
        -10.213790893554688
      ],
      [
        "目の",
        -10.214007377624512
      ],
      [
        "96",
        -10.214433670043944
      ],
      [
        "犯罪",
        -10.21466827392578
      ],
      [
        "規則",
        -10.21575927734375
      ],
      [
        "マク",
        -10.215977668762209
      ],
      [
        "学科",
        -10.21610164642334
      ],
      [
        "グリ",
        -10.216113090515137
      ],
      [
        "国境",
        -10.216523170471191
      ],
      [
        "大学院",
        -10.21657943725586
      ],
      [
        "眼",
        -10.216985702514648
      ],
      [
        "積極",
        -10.217273712158203
      ],
      [
        "典",
        -10.217472076416016
      ],
      [
        "断",
        -10.217549324035645
      ],
      [
        "ワイ",
        -10.217620849609377
      ],
      [
        "グル",
        -10.217981338500977
      ],
      [
        "古く",
        -10.218385696411133
      ],
      [
        "者と",
        -10.21856689453125
      ],
      [
        "ならず",
        -10.219928741455078
      ],
      [
        "過",
        -10.22024917602539
      ],
      [
        "射",
        -10.220479011535645
      ],
      [
        "二次世界大戦",
        -10.220849990844728
      ],
      [
        "つき",
        -10.221390724182127
      ],
      [
        "後半",
        -10.221487045288086
      ],
      [
        "呼び",
        -10.221793174743652
      ],
      [
        "結",
        -10.222076416015623
      ],
      [
        "たが",
        -10.22287654876709
      ],
      [
        "で最も",
        -10.223007202148438
      ],
      [
        "つまり",
        -10.223082542419434
      ],
      [
        "‧",
        -10.223252296447754
      ],
      [
        "イスラエル",
        -10.224227905273438
      ],
      [
        "電車",
        -10.225390434265137
      ],
      [
        "もつ",
        -10.22539234161377
      ],
      [
        "ve",
        -10.226560592651367
      ],
      [
        "解決",
        -10.226969718933104
      ],
      [
        "どちら",
        -10.227169036865234
      ],
      [
        "与え",
        -10.227679252624512
      ],
      [
        "に応じ",
        -10.227824211120604
      ],
      [
        "インタビュー",
        -10.228095054626465
      ],
      [
        "打率",
        -10.22842788696289
      ],
      [
        "大半",
        -10.228559494018556
      ],
      [
        "マイケル",
        -10.22967529296875
      ],
      [
        "鎮",
        -10.229689598083496
      ],
      [
        "レギュラー",
        -10.229710578918455
      ],
      [
        "パラ",
        -10.230042457580566
      ],
      [
        "分子",
        -10.230507850646973
      ],
      [
        "延",
        -10.231250762939451
      ],
      [
        "加藤",
        -10.231578826904297
      ],
      [
        "jo",
        -10.233535766601562
      ],
      [
        "ts",
        -10.233640670776367
      ],
      [
        "地点",
        -10.234003067016602
      ],
      [
        "保有",
        -10.2340087890625
      ],
      [
        "超える",
        -10.234090805053713
      ],
      [
        "fifa",
        -10.2341947555542
      ],
      [
        "アクセス",
        -10.235475540161133
      ],
      [
        "背",
        -10.235896110534668
      ],
      [
        "合い",
        -10.23606777191162
      ],
      [
        "mc",
        -10.237554550170898
      ],
      [
        "暦",
        -10.237574577331545
      ],
      [
        "呼ばれた",
        -10.238383293151855
      ],
      [
        "発言",
        -10.23841381072998
      ],
      [
        "展",
        -10.238627433776855
      ],
      [
        "進行",
        -10.238953590393066
      ],
      [
        "消滅",
        -10.239068984985352
      ],
      [
        "正式に",
        -10.239093780517578
      ],
      [
        "事実",
        -10.23950481414795
      ],
      [
        "長崎",
        -10.240684509277344
      ],
      [
        "減",
        -10.240839004516602
      ],
      [
        "○",
        -10.241070747375488
      ],
      [
        "すでに",
        -10.241682052612305
      ],
      [
        "閉鎖",
        -10.24188995361328
      ],
      [
        "迎えた",
        -10.242114067077637
      ],
      [
        "標高",
        -10.242474555969238
      ],
      [
        "1951",
        -10.24258804321289
      ],
      [
        "丘",
        -10.243027687072754
      ],
      [
        "栽培",
        -10.24359893798828
      ],
      [
        "趣味",
        -10.243950843811035
      ],
      [
        "寛",
        -10.24403190612793
      ],
      [
        "えき",
        -10.244709014892578
      ],
      [
        "ックス",
        -10.244720458984377
      ],
      [
        "きょう",
        -10.24473762512207
      ],
      [
        "ないが",
        -10.244756698608398
      ],
      [
        "侵攻",
        -10.244762420654297
      ],
      [
        "題",
        -10.24495792388916
      ],
      [
        "集落",
        -10.2451171875
      ],
      [
        "絵画",
        -10.245201110839844
      ],
      [
        "精",
        -10.24554443359375
      ],
      [
        "けい",
        -10.245765686035156
      ],
      [
        "合流",
        -10.246037483215332
      ],
      [
        "ロシア語",
        -10.246294975280762
      ],
      [
        "ごう",
        -10.24640941619873
      ],
      [
        "子会社",
        -10.247072219848633
      ],
      [
        "化した",
        -10.24732780456543
      ],
      [
        "仙台",
        -10.247425079345703
      ],
      [
        "ヴァル",
        -10.248893737792969
      ],
      [
        "漫画家",
        -10.249028205871582
      ],
      [
        "補",
        -10.24914264678955
      ],
      [
        "ビット",
        -10.249210357666016
      ],
      [
        "発達",
        -10.249462127685549
      ],
      [
        "細",
        -10.249903678894045
      ],
      [
        "宇",
        -10.250789642333984
      ],
      [
        "ユーザー",
        -10.251083374023438
      ],
      [
        "ソー",
        -10.251462936401367
      ],
      [
        "ソング",
        -10.251544952392578
      ],
      [
        "トロ",
        -10.25157070159912
      ],
      [
        "スク",
        -10.252312660217283
      ],
      [
        "必ず",
        -10.253094673156738
      ],
      [
        "無く",
        -10.25334644317627
      ],
      [
        "関係者",
        -10.25359058380127
      ],
      [
        "株",
        -10.253812789916992
      ],
      [
        "家庭",
        -10.253816604614258
      ],
      [
        "年齢",
        -10.2539701461792
      ],
      [
        "ny",
        -10.254364967346191
      ],
      [
        "兵衛",
        -10.254526138305664
      ],
      [
        "歌詞",
        -10.254804611206056
      ],
      [
        "貿易",
        -10.255128860473633
      ],
      [
        "いち",
        -10.255331039428713
      ],
      [
        "レット",
        -10.25550365447998
      ],
      [
        "宣",
        -10.255791664123535
      ],
      [
        "流行",
        -10.25672435760498
      ],
      [
        "てお",
        -10.256917953491213
      ],
      [
        "開幕",
        -10.257037162780762
      ],
      [
        "ap",
        -10.257177352905272
      ],
      [
        "チャンピオン",
        -10.257403373718262
      ],
      [
        "ジェームズ",
        -10.25763988494873
      ],
      [
        "密",
        -10.257827758789062
      ],
      [
        "授与",
        -10.258169174194336
      ],
      [
        "ぼ",
        -10.258260726928713
      ],
      [
        "日本代表",
        -10.258728981018066
      ],
      [
        "love",
        -10.2588472366333
      ],
      [
        "求める",
        -10.259809494018556
      ],
      [
        "長野県",
        -10.259904861450195
      ],
      [
        "僧",
        -10.26030445098877
      ],
      [
        "落",
        -10.260319709777832
      ],
      [
        "テレ",
        -10.26045036315918
      ],
      [
        "階級",
        -10.260560989379885
      ],
      [
        "マシン",
        -10.261862754821776
      ],
      [
        "生息",
        -10.262017250061035
      ],
      [
        "ゆう",
        -10.262033462524414
      ],
      [
        "述べた",
        -10.26205062866211
      ],
      [
        "上昇",
        -10.2623291015625
      ],
      [
        "bi",
        -10.26236629486084
      ],
      [
        "麻",
        -10.262432098388672
      ],
      [
        "貨物",
        -10.263604164123535
      ],
      [
        "ウッド",
        -10.26369571685791
      ],
      [
        "魔",
        -10.263702392578123
      ],
      [
        "週間",
        -10.264931678771973
      ],
      [
        "置",
        -10.265544891357422
      ],
      [
        "きず",
        -10.26555347442627
      ],
      [
        "長く",
        -10.26597499847412
      ],
      [
        "ころ",
        -10.266027450561523
      ],
      [
        "投げ",
        -10.26669979095459
      ],
      [
        "一族",
        -10.266929626464844
      ],
      [
        "リック",
        -10.267308235168455
      ],
      [
        "峰",
        -10.267913818359377
      ],
      [
        "業界",
        -10.268026351928713
      ],
      [
        "プロデュース",
        -10.268240928649902
      ],
      [
        "太平洋",
        -10.26830768585205
      ],
      [
        "誠",
        -10.268534660339355
      ],
      [
        "ケー",
        -10.268539428710938
      ],
      [
        "方言",
        -10.268552780151367
      ],
      [
        "民主党",
        -10.26869010925293
      ],
      [
        "トルコ",
        -10.269394874572754
      ],
      [
        "げ",
        -10.26951026916504
      ],
      [
        "ポー",
        -10.269734382629396
      ],
      [
        "職員",
        -10.269816398620604
      ],
      [
        "描く",
        -10.271065711975098
      ],
      [
        "中性",
        -10.271126747131348
      ],
      [
        "静",
        -10.27158260345459
      ],
      [
        "コール",
        -10.272099494934082
      ],
      [
        "チャールズ",
        -10.272459983825684
      ],
      [
        "文庫",
        -10.272663116455078
      ],
      [
        "ジャズ",
        -10.27287483215332
      ],
      [
        "陳",
        -10.272876739501951
      ],
      [
        "ミュージシャン",
        -10.273332595825195
      ],
      [
        "クー",
        -10.274279594421388
      ],
      [
        "チュ",
        -10.2742919921875
      ],
      [
        "糸",
        -10.274508476257324
      ],
      [
        "エピソード",
        -10.274721145629885
      ],
      [
        "77",
        -10.274896621704102
      ],
      [
        "西側",
        -10.27497386932373
      ],
      [
        "加え",
        -10.275308609008787
      ],
      [
        "炎",
        -10.275604248046877
      ],
      [
        "創立",
        -10.27574634552002
      ],
      [
        "立候補",
        -10.27583122253418
      ],
      [
        "ゆ",
[...]
